{
  "version": "1.0",
  "truncation": null,
  "padding": null,
  "added_tokens": [
    {
      "id": 0,
      "content": "<PAD>",
      "single_word": false,
      "lstrip": false,
      "rstrip": false,
      "normalized": false,
      "special": true
    },
    {
      "id": 1,
      "content": "<BOS>",
      "single_word": false,
      "lstrip": false,
      "rstrip": false,
      "normalized": false,
      "special": true
    },
    {
      "id": 2,
      "content": "<EOS>",
      "single_word": false,
      "lstrip": false,
      "rstrip": false,
      "normalized": false,
      "special": true
    },
    {
      "id": 3,
      "content": "<MASK>",
      "single_word": false,
      "lstrip": false,
      "rstrip": false,
      "normalized": false,
      "special": true
    },
    {
      "id": 4,
      "content": "<UNK>",
      "single_word": false,
      "lstrip": false,
      "rstrip": false,
      "normalized": false,
      "special": true
    }
  ],
  "normalizer": null,
  "pre_tokenizer": {
    "type": "ByteLevel",
    "add_prefix_space": false,
    "trim_offsets": true,
    "use_regex": true
  },
  "post_processor": {
    "type": "TemplateProcessing",
    "single": [
      {
        "SpecialToken": {
          "id": "<BOS>",
          "type_id": 0
        }
      },
      {
        "Sequence": {
          "id": "A",
          "type_id": 0
        }
      },
      {
        "SpecialToken": {
          "id": "<EOS>",
          "type_id": 0
        }
      }
    ],
    "pair": [
      {
        "Sequence": {
          "id": "A",
          "type_id": 0
        }
      },
      {
        "Sequence": {
          "id": "B",
          "type_id": 1
        }
      }
    ],
    "special_tokens": {
      "<BOS>": {
        "id": "<BOS>",
        "ids": [
          1
        ],
        "tokens": [
          "<BOS>"
        ]
      },
      "<EOS>": {
        "id": "<EOS>",
        "ids": [
          2
        ],
        "tokens": [
          "<EOS>"
        ]
      }
    }
  },
  "decoder": {
    "type": "ByteLevel",
    "add_prefix_space": true,
    "trim_offsets": true,
    "use_regex": true
  },
  "model": {
    "type": "BPE",
    "dropout": null,
    "unk_token": "<UNK>",
    "continuing_subword_prefix": null,
    "end_of_word_suffix": null,
    "fuse_unk": false,
    "byte_fallback": false,
    "ignore_merges": false,
    "vocab": {
      "<PAD>": 0,
      "<BOS>": 1,
      "<EOS>": 2,
      "<MASK>": 3,
      "<UNK>": 4,
      "!": 5,
      "\"": 6,
      "$": 7,
      "'": 8,
      ",": 9,
      "-": 10,
      ".": 11,
      "0": 12,
      "1": 13,
      "3": 14,
      "8": 15,
      ":": 16,
      ";": 17,
      "?": 18,
      "A": 19,
      "B": 20,
      "C": 21,
      "D": 22,
      "E": 23,
      "F": 24,
      "G": 25,
      "H": 26,
      "I": 27,
      "J": 28,
      "K": 29,
      "L": 30,
      "M": 31,
      "N": 32,
      "O": 33,
      "P": 34,
      "Q": 35,
      "R": 36,
      "S": 37,
      "T": 38,
      "U": 39,
      "V": 40,
      "W": 41,
      "Y": 42,
      "Z": 43,
      "a": 44,
      "b": 45,
      "c": 46,
      "d": 47,
      "e": 48,
      "f": 49,
      "g": 50,
      "h": 51,
      "i": 52,
      "j": 53,
      "k": 54,
      "l": 55,
      "m": 56,
      "n": 57,
      "o": 58,
      "p": 59,
      "q": 60,
      "r": 61,
      "s": 62,
      "t": 63,
      "u": 64,
      "v": 65,
      "w": 66,
      "x": 67,
      "y": 68,
      "z": 69,
      "¢": 70,
      "¬": 71,
      "Ã": 72,
      "Å": 73,
      "â": 74,
      "Ċ": 75,
      "Ġ": 76,
      "Ģ": 77,
      "Ĥ": 78,
      "Ħ": 79,
      "ĵ": 80,
      "ľ": 81,
      "Ŀ": 82,
      "he": 83,
      "Ġt": 84,
      "Ġa": 85,
      "Ġs": 86,
      "Ġw": 87,
      "Ġthe": 88,
      "nd": 89,
      "ed": 90,
      "in": 91,
      "Ġwa": 92,
      "Ġb": 93,
      "Ġand": 94,
      "Ġto": 95,
      "Ġh": 96,
      "it": 97,
      "re": 98,
      "ou": 99,
      "Ġf": 100,
      "er": 101,
      "Ġwas": 102,
      "Ġhe": 103,
      "Ġl": 104,
      "Ġc": 105,
      "Ġd": 106,
      "ing": 107,
      "Ġp": 108,
      "Ġm": 109,
      "Ġo": 110,
      "Ġg": 111,
      "ar": 112,
      "ll": 113,
      "at": 114,
      "om": 115,
      "ay": 116,
      "en": 117,
      "id": 118,
      "is": 119,
      "The": 120,
      "ne": 121,
      "le": 122,
      "Ġsa": 123,
      "an": 124,
      "Ġha": 125,
      "Ġth": 126,
      "Ġit": 127,
      "im": 128,
      "or": 129,
      "ĠS": 130,
      "et": 131,
      "ver": 132,
      "Ġe": 133,
      "Ġin": 134,
      "ld": 135,
      "ir": 136,
      "on": 137,
      "Ġher": 138,
      "ĠH": 139,
      "Ġbe": 140,
      "Ġshe": 141,
      "Ġso": 142,
      "ck": 143,
      "ow": 144,
      "ce": 145,
      "Ġu": 146,
      "ĠThe": 147,
      "ĠHe": 148,
      "Ġst": 149,
      "Ġn": 150,
      "ot": 151,
      "Ġr": 152,
      "Ġof": 153,
      "st": 154,
      "ĠShe": 155,
      "Ġsaid": 156,
      "ut": 157,
      "ig": 158,
      "very": 159,
      "pp": 160,
      "ly": 161,
      "oo": 162,
      "Ġ\"": 163,
      "ke": 164,
      "ked": 165,
      "ri": 166,
      "ve": 167,
      "Ġy": 168,
      "Ġthat": 169,
      "itt": 170,
      "Ġday": 171,
      "am": 172,
      "Ġhis": 173,
      "ĠĊ": 174,
      "Ġup": 175,
      "ad": 176,
      "ted": 177,
      "ĠI": 178,
      "Ġhad": 179,
      "ould": 180,
      "ith": 181,
      "ent": 182,
      "ittle": 183,
      "Ġwith": 184,
      "el": 185,
      "ound": 186,
      "Ġlittle": 187,
      "Ġpl": 188,
      "al": 189,
      "il": 190,
      "ack": 191,
      "Ġwe": 192,
      "ime": 193,
      "out": 194,
      "un": 195,
      "Ġsm": 196,
      "Ġtime": 197,
      "Ġyou": 198,
      "ĠJ": 199,
      "Ġre": 200,
      "Ġthere": 201,
      "ch": 202,
      "Ġon": 203,
      "irl": 204,
      "her": 205,
      "Ġfor": 206,
      "Ġgirl": 207,
      "Ġthey": 208,
      "all": 209,
      "Ġvery": 210,
      "Ġwh": 211,
      "Ġne": 212,
      "ome": 213,
      "ht": 214,
      "ec": 215,
      "end": 216,
      "Ã¢": 217,
      "âĤ": 218,
      "âĤ¬": 219,
      "Ġhapp": 220,
      "se": 221,
      "Ġplay": 222,
      "'s": 223,
      "Ġsh": 224,
      "On": 225,
      "Ġas": 226,
      "ug": 227,
      "es": 228,
      "Ġex": 229,
      "Ġan": 230,
      "Once": 231,
      "Ġk": 232,
      "Ġsp": 233,
      "ter": 234,
      "Ġfri": 235,
      "Ġfriend": 236,
      "ore": 237,
      "Ġwan": 238,
      "Ġloo": 239,
      "Ġbut": 240,
      "my": 241,
      "Ġbig": 242,
      "um": 243,
      "ved": 244,
      "Ġli": 245,
      "Ġbo": 246,
      "ill": 247,
      "fu": 248,
      "round": 249,
      "ide": 250,
      "Ġwere": 251,
      "Ġhappy": 252,
      "One": 253,
      "Ġsaw": 254,
      "Ġout": 255,
      "ra": 256,
      "ard": 257,
      "hing": 258,
      "way": 259,
      "one": 260,
      "Ġcould": 261,
      "'t": 262,
      "Ġupon": 263,
      "ic": 264,
      "Ġj": 265,
      "Ġhim": 266,
      "ake": 267,
      "hen": 268,
      "ĠIt": 269,
      "ĠM": 270,
      "ĠT": 271,
      "iled": 272,
      "ĠA": 273,
      "Ġall": 274,
      "Ġwanted": 275,
      "ind": 276,
      "ur": 277,
      "ain": 278,
      "Ġmom": 279,
      "Ġgo": 280,
      "Ġsmiled": 281,
      "ful": 282,
      "Ġtoo": 283,
      "ĠThey": 284,
      "!\"": 285,
      "Ġwent": 286,
      "Ġat": 287,
      "Ġdo": 288,
      "hed": 289,
      "Ġse": 290,
      ".\"": 291,
      "ry": 292,
      "Ġaround": 293,
      "ĠB": 294,
      "rom": 295,
      "Ġfriends": 296,
      "are": 297,
      "Ġhel": 298,
      "omet": 299,
      "dd": 300,
      "Ġwould": 301,
      "Ġexc": 302,
      "ĠE": 303,
      "Ġboy": 304,
      "Ġexcit": 305,
      "Ġsomet": 306,
      "ight": 307,
      "oug": 308,
      "Ġcl": 309,
      "Ġfe": 310,
      "Ġlo": 311,
      "ame": 312,
      "king": 313,
      "Ġstar": 314,
      "Ġsomething": 315,
      "Ġlooked": 316,
      "ure": 317,
      "Ġhelp": 318,
      "Ġback": 319,
      "Ġnot": 320,
      "side": 321,
      "ss": 322,
      "ag": 323,
      "Ġal": 324,
      "ear": 325,
      "ick": 326,
      "ark": 327,
      "ood": 328,
      "get": 329,
      "ĠL": 330,
      "Ġasked": 331,
      "nt": 332,
      "Ġran": 333,
      "Ġexcited": 334,
      "ree": 335,
      "Ġstarted": 336,
      "Ġwor": 337,
      "ong": 338,
      "Ġag": 339,
      "ie": 340,
      "qu": 341,
      "Ġfa": 342,
      "Ġno": 343,
      "elt": 344,
      "Ġthen": 345,
      "Ġcan": 346,
      "Ġfun": 347,
      "Ġfelt": 348,
      "Ġch": 349,
      "ea": 350,
      "ep": 351,
      "ro": 352,
      "pl": 353,
      "Ġaway": 354,
      "lly": 355,
      "gether": 356,
      "?\"": 357,
      "ily": 358,
      "Ġhome": 359,
      "pped": 360,
      "Ġwhen": 361,
      "ade": 362,
      "ab": 363,
      "Ġmu": 364,
      "Ġevery": 365,
      "Ġwal": 366,
      "aug": 367,
      "Ġdec": 368,
      "Ġv": 369,
      "Ġget": 370,
      "amed": 371,
      "udd": 372,
      "ĠOne": 373,
      "Ġthem": 374,
      "Ġagain": 375,
      "Ġab": 376,
      "ous": 377,
      "Ġme": 378,
      "ice": 379,
      "Ġhave": 380,
      "hat": 381,
      "Ġfrom": 382,
      "eci": 383,
      "Ġfound": 384,
      "ided": 385,
      "Ġwho": 386,
      "Ġtogether": 387,
      "Ġman": 388,
      "own": 389,
      "ĠJack": 390,
      "Ġloved": 391,
      "Ġdecided": 392,
      "op": 393,
      "ĠW": 394,
      "Ġbir": 395,
      "Ġspeci": 396,
      "Ġspecial": 397,
      "Ġnamed": 398,
      "udden": 399,
      "Ġplaying": 400,
      "Ġlike": 401,
      "Ġsome": 402,
      "Åĵ": 403,
      "Ġco": 404,
      "Ġfeel": 405,
      "uddenly": 406,
      "ĠÃ¢": 407,
      "Ġmade": 408,
      "Ġsee": 409,
      "Ġold": 410,
      "Ġtheir": 411,
      "Ġpark": 412,
      "Ġbird": 413,
      "ran": 414,
      "Ġthan": 415,
      "if": 416,
      "Ġdid": 417,
      "Ġsc": 418,
      "ally": 419,
      "ĠTim": 420,
      "ways": 421,
      "ought": 422,
      "Ġgot": 423,
      "ĠD": 424,
      "ant": 425,
      "âĤ¬â": 426,
      "Ġalways": 427,
      "Ġke": 428,
      "Ġmake": 429,
      "Ġthing": 430,
      "pt": 431,
      "Ġqu": 432,
      "Ġcare": 433,
      "Ġwhat": 434,
      "ust": 435,
      "ĠJo": 436,
      "Ġro": 437,
      "ĠEvery": 438,
      "as": 439,
      "ile": 440,
      "us": 441,
      "oud": 442,
      "Ġpr": 443,
      "Ġnever": 444,
      "Ġis": 445,
      "ouse": 446,
      "Ġone": 447,
      "Ġdown": 448,
      "Ġabout": 449,
      "ared": 450,
      "low": 451,
      "Ġnew": 452,
      "Ġexpl": 453,
      "Ġen": 454,
      "Ġtake": 455,
      "nder": 456,
      "ther": 457,
      "Ħ¢": 458,
      "Ġtw": 459,
      "Ġclo": 460,
      "âĤ¬âĦ¢": 461,
      "Ġbr": 462,
      "Ġlot": 463,
      "Ġput": 464,
      "Ġother": 465,
      "Ġgra": 466,
      "Ġsad": 467,
      "ma": 468,
      "Ġsun": 469,
      "Ġbl": 470,
      "Ġint": 471,
      "ny": 472,
      "ĠF": 473,
      "Ġpo": 474,
      "Ġbec": 475,
      "ched": 476,
      "ĠBut": 477,
      "ge": 478,
      "Ġsk": 479,
      "ise": 480,
      "Ġthought": 481,
      "reat": 482,
      "hn": 483,
      "Ġhug": 484,
      "Ġmo": 485,
      "Ġkne": 486,
      "Ġoutside": 487,
      "fter": 488,
      "Ġhow": 489,
      "cy": 490,
      "ate": 491,
      "and": 492,
      "ave": 493,
      "Ġfo": 494,
      "Ġgood": 495,
      "ist": 496,
      "Ġcouldn": 497,
      "ite": 498,
      "our": 499,
      "vent": 500,
      "Ġad": 501,
      "ried": 502,
      "Ġmuch": 503,
      "dy": 504,
      "ell": 505,
      "Ġmore": 506,
      "Ġknew": 507,
      "em": 508,
      "now": 509,
      "ven": 510,
      "Ġtree": 511,
      "Ġthis": 512,
      "Ġsmall": 513,
      "Ġcall": 514,
      "Ġinto": 515,
      "Ġwater": 516,
      "ret": 517,
      "Ġlaug": 518,
      "Ġcame": 519,
      "Ġgard": 520,
      "Ġoff": 521,
      "Ġscared": 522,
      "Ġgarden": 523,
      "olly": 524,
      "Ġbea": 525,
      "Ġtook": 526,
      "Ġthings": 527,
      "fe": 528,
      "Ġfind": 529,
      "ened": 530,
      "ummy": 531,
      "ace": 532,
      "Ġho": 533,
      "Ġtwo": 534,
      "ving": 535,
      "Ġway": 536,
      "Ġdad": 537,
      "ump": 538,
      "oy": 539,
      "Ġsw": 540,
      "ommy": 541,
      "ber": 542,
      "Ġlook": 543,
      "Ġthanked": 544,
      "ast": 545,
      "Ġmy": 546,
      "Ġcalled": 547,
      "Ġheard": 548,
      "Ġsky": 549,
      "ning": 550,
      "uck": 551,
      "Ġsoon": 552,
      "elf": 553,
      "Ġkept": 554,
      "ane": 555,
      "ged": 556,
      "Ġwat": 557,
      "Ġany": 558,
      "ion": 559,
      "ue": 560,
      "ucy": 561,
      "Ġlear": 562,
      "Ġstay": 563,
      "ough": 564,
      "iced": 565,
      "Ġclos": 566,
      "Ġtoy": 567,
      "Ġover": 568,
      "You": 569,
      "ned": 570,
      "Ġwo": 571,
      "Ġtr": 572,
      "Ġlong": 573,
      "ĠSo": 574,
      "urp": 575,
      "Ġproud": 576,
      ",\"": 577,
      "bb": 578,
      "ers": 579,
      "Ġinside": 580,
      "Ġnoticed": 581,
      "Ġfast": 582,
      "ild": 583,
      "Ġif": 584,
      "Ġhouse": 585,
      "ort": 586,
      "ntil": 587,
      "Ġfeeling": 588,
      "Ġdidn": 589,
      "Ġbeaut": 590,
      "Ġrem": 591,
      "Ġquick": 592,
      "Ġlots": 593,
      "So": 594,
      "ap": 595,
      "ive": 596,
      "self": 597,
      "Ġgave": 598,
      "imal": 599,
      "Ġanimal": 600,
      "Ġknow": 601,
      "When": 602,
      "au": 603,
      "Ġwill": 604,
      "Ġcar": 605,
      "Ġeven": 606,
      "Ġuntil": 607,
      "ady": 608,
      "Ġwant": 609,
      "ct": 610,
      "fore": 611,
      "ĠG": 612,
      "ink": 613,
      "Ġlea": 614,
      "Ġpu": 615,
      "other": 616,
      "Ġrun": 617,
      "Ġyour": 618,
      "ess": 619,
      "able": 620,
      "iful": 621,
      "Ġcat": 622,
      "Ġop": 623,
      "Ġjust": 624,
      "Ġwalking": 625,
      "Ġbeautiful": 626,
      "ach": 627,
      "Ġtold": 628,
      "It": 629,
      "here": 630,
      "Ġtried": 631,
      "Ġbot": 632,
      "Ġmag": 633,
      "ish": 634,
      "Ġbest": 635,
      "Ġshow": 636,
      "Ġlived": 637,
      "Ġjump": 638,
      "Ġadvent": 639,
      "ah": 640,
      "Ġsurp": 641,
      "Ġcome": 642,
      "Ġpick": 643,
      "Ġground": 644,
      "Ġbefore": 645,
      "ĠThen": 646,
      "Ġliked": 647,
      "Ġexplore": 648,
      "Ġquickly": 649,
      "Ġsurpr": 650,
      "Ġim": 651,
      "arah": 652,
      "aught": 653,
      "Ġlaughed": 654,
      "zed": 655,
      "Ġby": 656,
      "Ġnow": 657,
      "Ġneed": 658,
      "ĠAnd": 659,
      "Ġadventure": 660,
      "lew": 661,
      "Ġbear": 662,
      "'m": 663,
      "by": 664,
      "ger": 665,
      "ob": 666,
      "Ġama": 667,
      "Ġcu": 668,
      "Ġpe": 669,
      "Ġmum": 670,
      "Ġsto": 671,
      "Ġeveryone": 672,
      "ĠJoe": 673,
      "Ġroom": 674,
      "Ġwonder": 675,
      "That": 676,
      "ious": 677,
      "etter": 678,
      "Ġkind": 679,
      "Ġmagic": 680,
      "gan": 681,
      "rong": 682,
      "Ġbu": 683,
      "ĠSuddenly": 684,
      "ause": 685,
      "joy": 686,
      "ting": 687,
      "Ġwar": 688,
      "Ġfin": 689,
      "Ġcom": 690,
      "Ġhand": 691,
      "Ġyear": 692,
      "ĠJohn": 693,
      "Ġcloser": 694,
      "Jo": 695,
      "What": 696,
      "Ġtry": 697,
      "Ġar": 698,
      "Ġcon": 699,
      "Ġdon": 700,
      "Ġits": 701,
      "ves": 702,
      "Ġsmile": 703,
      "Ġbecause": 704,
      "Let": 705,
      "Suddenly": 706,
      "ax": 707,
      "Ġtea": 708,
      "Ġfam": 709,
      "Ġflow": 710,
      "Ġflew": 711,
      "Ġdel": 712,
      "Ġthree": 713,
      "ĠSam": 714,
      "Ġey": 715,
      "Ġend": 716,
      "ook": 717,
      "Ġboat": 718,
      "Ġcareful": 719,
      "Ġwatched": 720,
      "led": 721,
      "thing": 722,
      "Ġbug": 723,
      "Ġbetter": 724,
      "Ġfr": 725,
      "art": 726,
      "immy": 727,
      "Ġever": 728,
      "Ġus": 729,
      "ember": 730,
      "Jack": 731,
      "bit": 732,
      "lie": 733,
      "Ġare": 734,
      "isy": 735,
      "ĠSarah": 736,
      "ĠHer": 737,
      "Ġplace": 738,
      "Ġseen": 739,
      "Ġchild": 740,
      "Ġvo": 741,
      "Ġenjoy": 742,
      "Ġhugged": 743,
      "aisy": 744,
      "ary": 745,
      "ised": 746,
      "Ġeach": 747,
      "Ġstran": 748,
      "Ġrab": 749,
      "ĠMolly": 750,
      "Ġremember": 751,
      "Ġanimals": 752,
      "Ġrabbit": 753,
      "ase": 754,
      "ĠP": 755,
      "ine": 756,
      "Ġwait": 757,
      "Ġfore": 758,
      "Ġstill": 759,
      "ppy": 760,
      "Ġwalked": 761,
      "Ġstopped": 762,
      "Ġfamily": 763,
      "But": 764,
      "Ġche": 765,
      "igh": 766,
      "age": 767,
      "Ġpuppy": 768,
      "Ġeyes": 769,
      "eep": 770,
      "xt": 771,
      "ĠC": 772,
      "Ġow": 773,
      "Ġgreat": 774,
      "Ġbegan": 775,
      "Ġplayed": 776,
      "ĠLucy": 777,
      "ople": 778,
      "Ġboth": 779,
      "Ġsure": 780,
      "Ġhard": 781,
      "Ġfl": 782,
      "Ġdan": 783,
      "ank": 784,
      "ĠJane": 785,
      "Ġlooking": 786,
      "urt": 787,
      "ĠLily": 788,
      "Ġworld": 789,
      "bye": 790,
      "Ġpeople": 791,
      "He": 792,
      "ient": 793,
      "Ġbed": 794,
      "Ġlist": 795,
      "ĠHis": 796,
      "Ġbeen": 797,
      "ool": 798,
      "ĠAs": 799,
      "Ġgoing": 800,
      "bbed": 801,
      "Ġopened": 802,
      "Ġcuri": 803,
      "Ġvoice": 804,
      "Yes": 805,
      "row": 806,
      "th": 807,
      "Ġbra": 808,
      "ream": 809,
      "Ġwhile": 810,
      "fully": 811,
      "ĠEveryone": 812,
      "Ġgoodbye": 813,
      "John": 814,
      "ia": 815,
      "ip": 816,
      "ied": 817,
      "Ġ-": 818,
      "Ġafter": 819,
      "Ġpret": 820,
      "Ġstor": 821,
      "day": 822,
      "Ġac": 823,
      "Ġdis": 824,
      "ired": 825,
      "Ġready": 826,
      "dded": 827,
      "ĠDad": 828,
      "Ġjumped": 829,
      "No": 830,
      "aking": 831,
      "uch": 832,
      "Ġtast": 833,
      "Ġtow": 834,
      "Ġmor": 835,
      "Ġnice": 836,
      "Ġnext": 837,
      "Ġmommy": 838,
      "ĠWhen": 839,
      "Ġforest": 840,
      "ak": 841,
      "ire": 842,
      "port": 843,
      "ull": 844,
      "Ġfar": 845,
      "Ġcry": 846,
      "Ġgl": 847,
      "Ġeat": 848,
      "Ġun": 849,
      "ect": 850,
      "ĠTom": 851,
      "ĠAfter": 852,
      "Ġnodded": 853,
      "ush": 854,
      "Ġlearned": 855,
      "Ġmagical": 856,
      "Ġcurious": 857,
      "Ġbrave": 858,
      "ff": 859,
      "Ġide": 860,
      "Ġball": 861,
      "Ġdif": 862,
      "Ġbeh": 863,
      "Ġstrong": 864,
      "ster": 865,
      "Ġrepl": 866,
      "Ġbox": 867,
      "Ġwork": 868,
      "Ġcol": 869,
      "ĠDaisy": 870,
      "Ġcarefully": 871,
      "Ġprin": 872,
      "sh": 873,
      "Ġsec": 874,
      "Ġslow": 875,
      "Ġbit": 876,
      "Ġfly": 877,
      "Ġlet": 878,
      "Ġmouse": 879,
      "Ġgame": 880,
      "Ġhaving": 881,
      "irst": 882,
      "ĠEm": 883,
      "Ġface": 884,
      "Ġgrabbed": 885,
      "Ġbecame": 886,
      "Ġwarm": 887,
      "Ġyears": 888,
      "Ġidea": 889,
      "ail": 890,
      "ĠYou": 891,
      "Ġwaved": 892,
      "Ġpat": 893,
      "enny": 894,
      "les": 895,
      "Ġsafe": 896,
      "Ġste": 897,
      "Ġwhy": 898,
      "terf": 899,
      "Ġbutterf": 900,
      "ĠFrom": 901,
      "Ġwonderful": 902,
      "Ġreplied": 903,
      "eet": 904,
      "ty": 905,
      "Ġtired": 906,
      "Ġwind": 907,
      "ered": 908,
      "ished": 909,
      "ĠJill": 910,
      "Ġkitt": 911,
      "Ġdoor": 912,
      "Ġwalk": 913,
      "Ġgrass": 914,
      "Ġpond": 915,
      "Ġcont": 916,
      "Ġstrange": 917,
      "est": 918,
      "li": 919,
      "rough": 920,
      "Ġz": 921,
      "Ġfill": 922,
      "Ġcle": 923,
      "Ġcra": 924,
      "Ġthrough": 925,
      "Ġunder": 926,
      "Ġnight": 927,
      "Ġright": 928,
      "Ġreal": 929,
      "ching": 930,
      "Ġshin": 931,
      "Ġmany": 932,
      "Ġsweet": 933,
      "Ġdelic": 934,
      "Ġbutterfly": 935,
      "Th": 936,
      "ix": 937,
      "ng": 938,
      "outed": 939,
      "ount": 940,
      "Ġfish": 941,
      "Ġhead": 942,
      "Ġcreat": 943,
      "Ġshould": 944,
      "Ġpicked": 945,
      "\".": 946,
      "co": 947,
      "zing": 948,
      "Ġhere": 949,
      "Ġpa": 950,
      "Ġpare": 951,
      "Ġor": 952,
      "llow": 953,
      "Ġshouted": 954,
      "Ġjo": 955,
      "ĠMommy": 956,
      "Ġdog": 957,
      "nts": 958,
      "Ġseem": 959,
      "fere": 960,
      "Ġsurprise": 961,
      "Ġdiffere": 962,
      "Ġsecret": 963,
      "Ġkitty": 964,
      "Ġparents": 965,
      "ft": 966,
      "mer": 967,
      "Ġtal": 968,
      "Ġapp": 969,
      "Ġbow": 970,
      "Ġfood": 971,
      "Ġfull": 972,
      "Ġdro": 973,
      "They": 974,
      "adow": 975,
      "ĠIn": 976,
      "Ġshare": 977,
      "illy": 978,
      "Ġnoise": 979,
      "Ġrunning": 980,
      "Ġfilled": 981,
      "Mommy": 982,
      "ized": 983,
      "ph": 984,
      "ĠR": 985,
      "hes": 986,
      "Ġsle": 987,
      "Ġsqu": 988,
      "Ġfirst": 989,
      "Ġloud": 990,
      "Ġless": 991,
      "Ġper": 992,
      "Then": 993,
      "ĠMia": 994,
      "rank": 995,
      "Ġkeep": 996,
      "Ġtoys": 997,
      "Ġtruck": 998,
      "Ġleaves": 999,
      "Ġenjoyed": 1000,
      "Ġdifferent": 1001,
      "Molly": 1002,
      "lu": 1003,
      "ner": 1004,
      "ĠN": 1005,
      "Ġwood": 1006,
      "Ġdone": 1007,
      "ather": 1008,
      "Ġbeing": 1009,
      "Ġred": 1010,
      "ĠJimmy": 1011,
      "Ġreally": 1012,
      "Ġhimself": 1013,
      "Ġexplor": 1014,
      "Ġamazing": 1015,
      "Ġarri": 1016,
      "Lucy": 1017,
      "ced": 1018,
      "ock": 1019,
      "ued": 1020,
      "Ġtre": 1021,
      "Ġsound": 1022,
      "Ġdin": 1023,
      "Ġmat": 1024,
      "ĠBob": 1025,
      "Ġbright": 1026,
      "Ġfox": 1027,
      "Ġfollow": 1028,
      "Ġcoming": 1029,
      "ĠDaddy": 1030,
      "Ġstepped": 1031,
      "Ġarrived": 1032,
      "Mummy": 1033,
      "ually": 1034,
      "where": 1035,
      "Ġpre": 1036,
      "Ġmother": 1037,
      "ated": 1038,
      "leph": 1039,
      "pping": 1040,
      "Ġhappily": 1041,
      "Ġclose": 1042,
      "Ġstayed": 1043,
      "Ġimport": 1044,
      "Ġlisten": 1045,
      "Ġcontin": 1046,
      "Ġimportant": 1047,
      "She": 1048,
      "ached": 1049,
      "iz": 1050,
      "Ġice": 1051,
      "Ġtur": 1052,
      "Ġtop": 1053,
      "Ġdeep": 1054,
      "Ġgi": 1055,
      "ĠSue": 1056,
      "Ġbel": 1057,
      "Ġri": 1058,
      "Ġru": 1059,
      "Ġyummy": 1060,
      "Ġnear": 1061,
      "Ġfav": 1062,
      "room": 1063,
      "aby": 1064,
      "Ġgetting": 1065,
      "Ġblack": 1066,
      "Ġmorning": 1067,
      "Ġslowly": 1068,
      "Ġsleep": 1069,
      "Ġlesson": 1070,
      "Ġcontinued": 1071,
      "oon": 1072,
      "zy": 1073,
      "Ġhigh": 1074,
      "Ġfig": 1075,
      "Ġle": 1076,
      "Ġpow": 1077,
      "Ġmon": 1078,
      "Ġgre": 1079,
      "Ġgone": 1080,
      "Ġgive": 1081,
      "irt": 1082,
      "Ġherself": 1083,
      "Ġuse": 1084,
      "Ġspot": 1085,
      "ssed": 1086,
      "ĠLet": 1087,
      "Ġable": 1088,
      "Ġsomeone": 1089,
      "ventually": 1090,
      "Ġhopped": 1091,
      "Ġfaster": 1092,
      "Ġflower": 1093,
      "Ġflowers": 1094,
      "Ġremembered": 1095,
      "Ġbehind": 1096,
      "Ġdelicious": 1097,
      "Ġseemed": 1098,
      "Ġperf": 1099,
      "Can": 1100,
      "cher": 1101,
      "ho": 1102,
      "ined": 1103,
      "Ġdre": 1104,
      "Ġdark": 1105,
      "Ġpain": 1106,
      "isit": 1107,
      "irc": 1108,
      "Ġbigger": 1109,
      "ĠTo": 1110,
      "Ġvisit": 1111,
      "Ġcold": 1112,
      "Ġbrother": 1113,
      "Ġblue": 1114,
      "Ġhole": 1115,
      "ĠGra": 1116,
      "Ġsurprised": 1117,
      "Ġamazed": 1118,
      "Ġfinally": 1119,
      "Ġteacher": 1120,
      "Ġtrees": 1121,
      "bed": 1122,
      "ble": 1123,
      "iet": 1124,
      "Ġwhere": 1125,
      "eddy": 1126,
      "Ġhar": 1127,
      "Ġhurt": 1128,
      "Ġdri": 1129,
      "Ġspl": 1130,
      "ards": 1131,
      "Ġjoy": 1132,
      "ĠMom": 1133,
      "ĠMary": 1134,
      "Ġclim": 1135,
      "Ġfew": 1136,
      "eared": 1137,
      "ĠLittle": 1138,
      "ross": 1139,
      "Ġeverything": 1140,
      "Ġbirds": 1141,
      "Ġquiet": 1142,
      "Ġrock": 1143,
      "Ġmove": 1144,
      "Ġanything": 1145,
      "Ġlearn": 1146,
      "Ġcatch": 1147,
      "Ġstory": 1148,
      "Ġacross": 1149,
      "ffy": 1150,
      "Ġbelong": 1151,
      "Ġfigure": 1152,
      "Ġperfect": 1153,
      "be": 1154,
      "io": 1155,
      "sc": 1156,
      "so": 1157,
      "ul": 1158,
      "Ġsor": 1159,
      "Ġbar": 1160,
      "Ġbun": 1161,
      "Ġtouch": 1162,
      "Ġfur": 1163,
      "Ġfree": 1164,
      "Ġland": 1165,
      "Ġprom": 1166,
      "Ġpea": 1167,
      "Ġgent": 1168,
      "aring": 1169,
      "lled": 1170,
      "Ġel": 1171,
      "Ġeleph": 1172,
      "Ġname": 1173,
      "Ġnaught": 1174,
      "ung": 1175,
      "Ġrest": 1176,
      "Ġreached": 1177,
      "Ġonly": 1178,
      "Ġshop": 1179,
      "icy": 1180,
      "ĠAll": 1181,
      "Ġmeadow": 1182,
      "ĠWe": 1183,
      "ĠTimmy": 1184,
      "Ġblank": 1185,
      "Ġlonger": 1186,
      "Ġshowed": 1187,
      "Ġused": 1188,
      "Ġglad": 1189,
      "Ġcolor": 1190,
      "Ġcreature": 1191,
      "Ġexploring": 1192,
      "Ġsorry": 1193,
      "Ġelephant": 1194,
      "Ġblanket": 1195,
      "Her": 1196,
      "Jimmy": 1197,
      "Mom": 1198,
      "Tim": 1199,
      "bor": 1200,
      "ies": 1201,
      "pot": 1202,
      "sed": 1203,
      "Ġsn": 1204,
      "Ġsuddenly": 1205,
      "inally": 1206,
      "reed": 1207,
      "Ġfix": 1208,
      "Ġrain": 1209,
      "Ġyoung": 1210,
      "Ġang": 1211,
      "Ġkid": 1212,
      "ĠMax": 1213,
      "Ġsear": 1214,
      "Ġcla": 1215,
      "Ġlove": 1216,
      "Ġalso": 1217,
      "andy": 1218,
      "Ġtrying": 1219,
      "Ġown": 1220,
      "Ġrealized": 1221,
      "Ġshiny": 1222,
      "Ġbunny": 1223,
      "Ġpeace": 1224,
      "At": 1225,
      "hy": 1226,
      "la": 1227,
      "Ġtall": 1228,
      "Ġsat": 1229,
      "Ġsay": 1230,
      "Ġset": 1231,
      "Ġsnow": 1232,
      "Ġwon": 1233,
      "Ġbad": 1234,
      "Ġlady": 1235,
      "Ġcirc": 1236,
      "Ġmess": 1237,
      "lease": 1238,
      "iry": 1239,
      "Ġbelie": 1240,
      "Ġyell": 1241,
      "Ġplant": 1242,
      "Ġhappen": 1243,
      "Ġmoment": 1244,
      "Ġword": 1245,
      "epend": 1246,
      "Ġmust": 1247,
      "Ġenough": 1248,
      "Ġmost": 1249,
      "ours": 1250,
      "ape": 1251,
      "Ġowl": 1252,
      "Ġflo": 1253,
      "Ġpretty": 1254,
      "ĠEmma": 1255,
      "Ġclean": 1256,
      "Ġunderst": 1257,
      "ĠNow": 1258,
      "Ġwoods": 1259,
      "'ll": 1260,
      "From": 1261,
      "His": 1262,
      "Hell": 1263,
      "kay": 1264,
      "ton": 1265,
      "Ġve": 1266,
      "Ġtri": 1267,
      "Ġtell": 1268,
      "Ġside": 1269,
      "inging": 1270,
      "Ġpink": 1271,
      "Ġgr": 1272,
      "idd": 1273,
      "eter": 1274,
      "Ġem": 1275,
      "Ġsoft": 1276,
      "cept": 1277,
      "unk": 1278,
      "Ġhappened": 1279,
      "ĠMummy": 1280,
      "ash": 1281,
      "Ġlooks": 1282,
      "ĠAndy": 1283,
      "Ġfinished": 1284,
      "Ġhands": 1285,
      "Ġballoon": 1286,
      "Ġprince": 1287,
      "Thank": 1288,
      "Ġmonster": 1289,
      "Ġnaughty": 1290,
      "Ġbelieve": 1291,
      "Hello": 1292,
      "Don": 1293,
      "We": 1294,
      "ac": 1295,
      "har": 1296,
      "me": 1297,
      "more": 1298,
      "nn": 1299,
      "Ġair": 1300,
      "Ġfro": 1301,
      "Ġlight": 1302,
      "Ġpart": 1303,
      "Ġmaking": 1304,
      "Ġoran": 1305,
      "Ġgum": 1306,
      "Ġgho": 1307,
      "lla": 1308,
      "ĠSpot": 1309,
      "vered": 1310,
      "ĠThere": 1311,
      "Ġstre": 1312,
      "Ġrace": 1313,
      "ames": 1314,
      "Ġkn": 1315,
      "Ġate": 1316,
      "Ġcho": 1317,
      "ÅĵI": 1318,
      "Ġexplain": 1319,
      "Ġothers": 1320,
      "ĠFrank": 1321,
      "Ġanymore": 1322,
      "Ġclosed": 1323,
      "Ġneeded": 1324,
      "Ġtasted": 1325,
      "Ġpatient": 1326,
      "luffy": 1327,
      "Ġdinner": 1328,
      "Ġpromised": 1329,
      "Ġghost": 1330,
      "Tom": 1331,
      "ike": 1332,
      "ling": 1333,
      "sy": 1334,
      "hene": 1335,
      "Ġsu": 1336,
      "Ġbro": 1337,
      "ren": 1338,
      "Ġpir": 1339,
      "Ġpic": 1340,
      "Ġpro": 1341,
      "Ġmet": 1342,
      "Ġmill": 1343,
      "Ġsame": 1344,
      "orite": 1345,
      "Ġear": 1346,
      "Ġstore": 1347,
      "Ġstone": 1348,
      "ries": 1349,
      "ama": 1350,
      "Ġrelie": 1351,
      "umb": 1352,
      "ĠTh": 1353,
      "ĠThat": 1354,
      "ĠAl": 1355,
      "Ġworked": 1356,
      "Ġgrand": 1357,
      "ement": 1358,
      "Ġopen": 1359,
      "Ġadventures": 1360,
      "Ġchildren": 1361,
      "Ġdisco": 1362,
      "Ġdrove": 1363,
      "Ġfollowed": 1364,
      "Ġfavorite": 1365,
      "Ġgreen": 1366,
      "Ġelse": 1367,
      "henever": 1368,
      "Ġpirate": 1369,
      "Oh": 1370,
      "aw": 1371,
      "lin": 1372,
      "lax": 1373,
      "os": 1374,
      "rot": 1375,
      "sp": 1376,
      "tur": 1377,
      "une": 1378,
      "Ġam": 1379,
      "Ġwrong": 1380,
      "Ġhill": 1381,
      "rel": 1382,
      "Ġlone": 1383,
      "Ġcaught": 1384,
      "Ġcount": 1385,
      "Ġdr": 1386,
      "Ġpie": 1387,
      "Ġgather": 1388,
      "Ġsail": 1389,
      "Ġra": 1390,
      "Ġrelax": 1391,
      "Ġretur": 1392,
      "Ġwhite": 1393,
      "ract": 1394,
      "ĠAmy": 1395,
      "Ġhelped": 1396,
      "Ġagreed": 1397,
      "Ġmean": 1398,
      "Ġthank": 1399,
      "ask": 1400,
      "Ġblock": 1401,
      "Ġfold": 1402,
      "Ġadm": 1403,
      "Ġswim": 1404,
      "Ġmyster": 1405,
      "Ġimag": 1406,
      "Ġbuild": 1407,
      "Ġpretend": 1408,
      "Ġtalk": 1409,
      "Ġgentle": 1410,
      "Ġkids": 1411,
      "Ġrelieved": 1412,
      "Ġpiece": 1413,
      "And": 1414,
      "Why": 1415,
      "bo": 1416,
      "de": 1417,
      "der": 1418,
      "ich": 1419,
      "ken": 1420,
      "per": 1421,
      "Ġtight": 1422,
      "Ġsl": 1423,
      "Ġsuch": 1424,
      "Ġbush": 1425,
      "Ġhor": 1426,
      "Ġhide": 1427,
      "erful": 1428,
      "Ġcool": 1429,
      "Ġdream": 1430,
      "Ġpus": 1431,
      "Ġgu": 1432,
      "ath": 1433,
      "Ġbell": 1434,
      "cket": 1435,
      "Ġstand": 1436,
      "ign": 1437,
      "Ġspe": 1438,
      "Ġspo": 1439,
      "Ġfriendly": 1440,
      "Ġatt": 1441,
      "Ġfell": 1442,
      "Ġlost": 1443,
      "Ġalone": 1444,
      "Ġworry": 1445,
      "Ġbrought": 1446,
      "Ġsunny": 1447,
      "ĠFluffy": 1448,
      "Ġpocket": 1449,
      "Ġmod": 1450,
      "Ġfoot": 1451,
      "Ġbott": 1452,
      "Ġlistened": 1453,
      "Ġtowards": 1454,
      "Ġgiant": 1455,
      "Ġriver": 1456,
      "Ġdress": 1457,
      "Ġharbor": 1458,
      "Ġangry": 1459,
      "'re": 1460,
      "After": 1461,
      "Do": 1462,
      "Lily": 1463,
      "Wow": 1464,
      "av": 1465,
      "ead": 1466,
      "fort": 1467,
      "red": 1468,
      "rated": 1469,
      "sw": 1470,
      "Ġ3": 1471,
      "Ġsch": 1472,
      "Ġhours": 1473,
      "Ġfight": 1474,
      "Ġhear": 1475,
      "Ġcher": 1476,
      "ings": 1477,
      "Ġpack": 1478,
      "Ġmis": 1479,
      "Ġmark": 1480,
      "ation": 1481,
      "less": 1482,
      "etle": 1483,
      "Ġbeetle": 1484,
      "keep": 1485,
      "Ġyard": 1486,
      "Ġwhich": 1487,
      "Ġsho": 1488,
      "Ġshared": 1489,
      "Ġansw": 1490,
      "Ġlife": 1491,
      "fused": 1492,
      "icop": 1493,
      "ĠAnn": 1494,
      "Ġhelicop": 1495,
      "Ġexcitement": 1496,
      "icken": 1497,
      "Ġworried": 1498,
      "Ġchicken": 1499,
      "Ġvio": 1500,
      "Ġcoin": 1501,
      "ased": 1502,
      "Ġdaddy": 1503,
      "Ġwondered": 1504,
      "Ġtaste": 1505,
      "Ġzi": 1506,
      "Ġpass": 1507,
      "Ġjoin": 1508,
      "Ġappeared": 1509,
      "Ġpres": 1510,
      "ĠGrace": 1511,
      "Ġclimb": 1512,
      "scape": 1513,
      "Ġshopkeep": 1514,
      "Ġyellow": 1515,
      "Ġbroken": 1516,
      "Ġlonely": 1517,
      "Ġspeed": 1518,
      "Ġschool": 1519,
      "Ġhelicopter": 1520,
      "Ġviolin": 1521,
      "Ġshopkeeper": 1522,
      "As": 1523,
      "Bob": 1524,
      "Every": 1525,
      "Look": 1526,
      "bar": 1527,
      "cing": 1528,
      "cream": 1529,
      "ual": 1530,
      "ze": 1531,
      "hel": 1532,
      "Ġtaking": 1533,
      "Ġsit": 1534,
      "Ġwet": 1535,
      "inted": 1536,
      "Ġbre": 1537,
      "Ġbag": 1538,
      "Ġbran": 1539,
      "Ġbus": 1540,
      "Ġfall": 1541,
      "Ġwasn": 1542,
      "Ġheld": 1543,
      "Ġcut": 1544,
      "Ġdry": 1545,
      "Ġdist": 1546,
      "Ġph": 1547,
      "Ġpar": 1548,
      "Ġmight": 1549,
      "Ġgrow": 1550,
      "ater": 1551,
      "Ġthin": 1552,
      "Ġthink": 1553,
      "ord": 1554,
      "ĠSandy": 1555,
      "Ġeventually": 1556,
      "Ġstu": 1557,
      "key": 1558,
      "elc": 1559,
      "Ġwell": 1560,
      "Ġshirt": 1561,
      "Ġbutton": 1562,
      "ĠBe": 1563,
      "ĠBilly": 1564,
      "Ġfairy": 1565,
      "âĤ¬âĢ": 1566,
      "Ġhuge": 1567,
      "Ġmoved": 1568,
      "Ġlaughing": 1569,
      "inky": 1570,
      "Ġleave": 1571,
      "Ġpulled": 1572,
      "thy": 1573,
      "Ġstories": 1574,
      "Ġmoral": 1575,
      "Ġfarmer": 1576,
      "Ġflying": 1577,
      "This": 1578,
      "ountain": 1579,
      "Ġspotted": 1580,
      "Ġbelonged": 1581,
      "ependable": 1582,
      "iddle": 1583,
      "Ġembar": 1584,
      "achel": 1585,
      "Ġparty": 1586,
      "Ġdrink": 1587,
      "Ġpresent": 1588,
      "Ġembarra": 1589,
      "app": 1590,
      "een": 1591,
      "got": 1592,
      "ming": 1593,
      "ror": 1594,
      "sic": 1595,
      "to": 1596,
      "Ġwished": 1597,
      "Ġwelc": 1598,
      "Ġbite": 1599,
      "oup": 1600,
      "Ġheal": 1601,
      "Ġheart": 1602,
      "Ġcurt": 1603,
      "Ġdes": 1604,
      "Ġpig": 1605,
      "Ġplease": 1606,
      "Ġmin": 1607,
      "Ġmiddle": 1608,
      "Ġokay": 1609,
      "Ġshel": 1610,
      "Ġstr": 1611,
      "Ġrid": 1612,
      "igg": 1613,
      "Ġwithout": 1614,
      "Ġwear": 1615,
      "Ġforgot": 1616,
      "Ġneigh": 1617,
      "Ġspent": 1618,
      "Ġjet": 1619,
      "ĠElly": 1620,
      "ĠElla": 1621,
      "Ġexciting": 1622,
      "ssel": 1623,
      "ield": 1624,
      "Ġmeet": 1625,
      "ĠWith": 1626,
      "ĠWhat": 1627,
      "Ġcoll": 1628,
      "ustrated": 1629,
      "ĠEverywhere": 1630,
      "Ġeng": 1631,
      "Ġremind": 1632,
      "Ġbuy": 1633,
      "Ġarm": 1634,
      "ĠdonÃ¢": 1635,
      "Ġteach": 1636,
      "Ġwaited": 1637,
      "Ġchest": 1638,
      "Ġdance": 1639,
      "Ġdanger": 1640,
      "Ġdisapp": 1641,
      "Ġtown": 1642,
      "Ġcrab": 1643,
      "Ġcraw": 1644,
      "Ġshining": 1645,
      "ĠInside": 1646,
      "ular": 1647,
      "Ġfurry": 1648,
      "Ġcolorful": 1649,
      "Ġclapped": 1650,
      "Ġunderstand": 1651,
      "Ġstreet": 1652,
      "Ġexplained": 1653,
      "ĠThis": 1654,
      "Ġgathered": 1655,
      "Ġreturned": 1656,
      "Ġblocks": 1657,
      "Ġbreak": 1658,
      "Ġcurtain": 1659,
      "Finally": 1660,
      "Little": 1661,
      "Mia": 1662,
      "air": 1663,
      "br": 1664,
      "eb": 1665,
      "ground": 1666,
      "oom": 1667,
      "ped": 1668,
      "yard": 1669,
      "Ġ'": 1670,
      "Ġent": 1671,
      "Ġteddy": 1672,
      "Ġwander": 1673,
      "Ġbook": 1674,
      "Ġbaby": 1675,
      "Ġbath": 1676,
      "Ġhat": 1677,
      "Ġhan": 1678,
      "Ġhur": 1679,
      "Ġhook": 1680,
      "itc": 1681,
      "ity": 1682,
      "Ġfit": 1683,
      "Ġpast": 1684,
      "Ġpract": 1685,
      "Ġmir": 1686,
      "Ġobed": 1687,
      "enry": 1688,
      "ance": 1689,
      "anny": 1690,
      "Ġinc": 1691,
      "Ġbee": 1692,
      "Ġstop": 1693,
      "Ġride": 1694,
      "Ġrake": 1695,
      "Ġyes": 1696,
      "Ġplan": 1697,
      "ĠJenny": 1698,
      "Ġonto": 1699,
      "Ġforget": 1700,
      "Ġplayground": 1701,
      "Ġanother": 1702,
      "Ġspark": 1703,
      "umber": 1704,
      "oney": 1705,
      "ĠTommy": 1706,
      "Ġdoes": 1707,
      "Ġdoct": 1708,
      "ĠBen": 1709,
      "Ġcloud": 1710,
      "Ġnothing": 1711,
      "ager": 1712,
      "?\".": 1713,
      "Ġmusic": 1714,
      "Ġcovered": 1715,
      "Ġsunsh": 1716,
      "Ġmole": 1717,
      "Ġbeach": 1718,
      "Ġswing": 1719,
      "Ġwatch": 1720,
      "Ġwatching": 1721,
      "Ġcarrot": 1722,
      "Ġimp": 1723,
      "Ġcomp": 1724,
      "Ġfrustrated": 1725,
      "Ġstranger": 1726,
      "ĠChar": 1727,
      "Ġcolour": 1728,
      "Ġprint": 1729,
      "Ġwindow": 1730,
      "Ġsquash": 1731,
      "ize": 1732,
      "Ġrude": 1733,
      "ĠTogether": 1734,
      "Ġdriver": 1735,
      "Ġpeaceful": 1736,
      "Ġfrog": 1737,
      "Ġorange": 1738,
      "Ġmysterious": 1739,
      "Ġspoke": 1740,
      "Ġparade": 1741,
      "Ġembarrassed": 1742,
      "Ġminut": 1743,
      "Ġmirror": 1744,
      "Ġobedient": 1745,
      "Ġdoctor": 1746,
      "Ġsunshine": 1747,
      "'d": 1748,
      "Amy": 1749,
      "Dad": 1750,
      "Hi": 1751,
      "In": 1752,
      "Jane": 1753,
      "Max": 1754,
      "ball": 1755,
      "set": 1756,
      "uce": 1757,
      "ĠK": 1758,
      "Ġour": 1759,
      "Ġtail": 1760,
      "Ġadd": 1761,
      "Ġwr": 1762,
      "Ġwide": 1763,
      "Ġwise": 1764,
      "ndma": 1765,
      "Ġwall": 1766,
      "Ġbor": 1767,
      "Ġtoday": 1768,
      "Ġhid": 1769,
      "Ġhung": 1770,
      "oun": 1771,
      "Ġfire": 1772,
      "Ġfield": 1773,
      "Ġheav": 1774,
      "Ġlit": 1775,
      "Ġcake": 1776,
      "Ġcave": 1777,
      "Ġcream": 1778,
      "Ġdaught": 1779,
      "Ġpers": 1780,
      "Ġpap": 1781,
      "Ġoce": 1782,
      "Ġglow": 1783,
      "enise": 1784,
      "anic": 1785,
      "Ġthough": 1786,
      "orm": 1787,
      "ĠSally": 1788,
      "Ġeager": 1789,
      "Ġinst": 1790,
      "ont": 1791,
      "Ġrug": 1792,
      "rior": 1793,
      "iling": 1794,
      "Ġsmell": 1795,
      "Ġsmiling": 1796,
      "ĠJim": 1797,
      "Ġreli": 1798,
      "Ġkick": 1799,
      "Ġspin": 1800,
      "illage": 1801,
      "Ġjob": 1802,
      "Ġjung": 1803,
      "urse": 1804,
      "Ġdoing": 1805,
      "Ġalong": 1806,
      "Ġeverywhere": 1807,
      "Ġvine": 1808,
      "Ġvillage": 1809,
      "Ġwhole": 1810,
      "Ġbecome": 1811,
      "gest": 1812,
      "Ġwoke": 1813,
      "Ġbears": 1814,
      "Ġwarrior": 1815,
      "Ġfront": 1816,
      "Ġplaces": 1817,
      "Ġenjoying": 1818,
      "Ġcheered": 1819,
      "Ġdanced": 1820,
      "Ġeating": 1821,
      "Ġpath": 1822,
      "Ġdropped": 1823,
      "ĠRu": 1824,
      "ĠRachel": 1825,
      "Ġmatch": 1826,
      "Ġmatter": 1827,
      "Ġcircle": 1828,
      "Ġfloat": 1829,
      "Ġtrip": 1830,
      "Ġhorse": 1831,
      "Ġstanding": 1832,
      "fortable": 1833,
      "Ġcherry": 1834,
      "Ġmarket": 1835,
      "Ġbranch": 1836,
      "Ġphone": 1837,
      "Ġdaughter": 1838,
      "Ġocean": 1839,
      "Ġreliable": 1840,
      "Ġjungle": 1841,
      "Come": 1842,
      "Just": 1843,
      "My": 1844,
      "Sam": 1845,
      "Sarah": 1846,
      "To": 1847,
      "ae": 1848,
      "ass": 1849,
      "bow": 1850,
      "baby": 1851,
      "cle": 1852,
      "dge": 1853,
      "hile": 1854,
      "iers": 1855,
      "kin": 1856,
      "mor": 1857,
      "nie": 1858,
      "ond": 1859,
      "ray": 1860,
      "sab": 1861,
      "ti": 1862,
      "ward": 1863,
      "ying": 1864,
      "Ġtin": 1865,
      "Ġtreat": 1866,
      "Ġtaught": 1867,
      "Ġact": 1868,
      "Ġself": 1869,
      "Ġwis": 1870,
      "ince": 1871,
      "innie": 1872,
      "Ġhot": 1873,
      "read": 1874,
      "erous": 1875,
      "Ġlate": 1876,
      "Ġcand": 1877,
      "Ġcast": 1878,
      "Ġcush": 1879,
      "Ġpen": 1880,
      "Ġpet": 1881,
      "Ġpil": 1882,
      "Ġpurp": 1883,
      "Ġmind": 1884,
      "Ġmoney": 1885,
      "Ġgen": 1886,
      "Ġgem": 1887,
      "ari": 1888,
      "aybe": 1889,
      "idge": 1890,
      "Ġescape": 1891,
      "ldiers": 1892,
      "irrel": 1893,
      "Ġsol": 1894,
      "Ġsoldiers": 1895,
      "Ġstret": 1896,
      "Ġstuck": 1897,
      "Ġnap": 1898,
      "Ġrare": 1899,
      "sting": 1900,
      "ighed": 1901,
      "ĠIÃ¢": 1902,
      "ention": 1903,
      "Ġplane": 1904,
      "alk": 1905,
      "ilk": 1906,
      "acket": 1907,
      "imes": 1908,
      "unch": 1909,
      "Ġtimes": 1910,
      "ĠJames": 1911,
      "ĠJune": 1912,
      "chanic": 1913,
      "Ġshy": 1914,
      "ugg": 1915,
      "Ġant": 1916,
      "Ġkite": 1917,
      "Ġspread": 1918,
      "Ġlive": 1919,
      "Ġjacket": 1920,
      "Ġdove": 1921,
      "ĠBeep": 1922,
      "ĠBenny": 1923,
      "ĠBinky": 1924,
      "Ġwouldn": 1925,
      "ĠEnd": 1926,
      "Ġfeet": 1927,
      "Ġbackyard": 1928,
      "Ġmechanic": 1929,
      "Ġbirth": 1930,
      "Ġcozy": 1931,
      "Ġqueen": 1932,
      "aser": 1933,
      "usual": 1934,
      "Ġbrown": 1935,
      "ĠFinally": 1936,
      "Ġpol": 1937,
      "Ġpole": 1938,
      "Ġpointed": 1939,
      "Ġmoving": 1940,
      "ately": 1941,
      "Ġlaugh": 1942,
      "Ġhopping": 1943,
      "Ġanyone": 1944,
      "ions": 1945,
      "Joe": 1946,
      "Ġconfused": 1947,
      "Ġfrown": 1948,
      "Ġaccept": 1949,
      "Ġuni": 1950,
      "Ġunusual": 1951,
      "ĠEmily": 1952,
      "Ġtalking": 1953,
      "Ġsquirrel": 1954,
      "Ġleg": 1955,
      "Ġleft": 1956,
      "Ġpainter": 1957,
      "blem": 1958,
      "Ġsplas": 1959,
      "ult": 1960,
      "Ġrainbow": 1961,
      "Ġsearching": 1962,
      "laire": 1963,
      "Ġwords": 1964,
      "Ġgrandbaby": 1965,
      "Ġadmire": 1966,
      "Ġslide": 1967,
      "Ġmodel": 1968,
      "Ġbottom": 1969,
      "Ġpassport": 1970,
      "Ġengine": 1971,
      "Ġdangerous": 1972,
      "Ġpaper": 1973,
      "sabel": 1974,
      "Ġselfish": 1975,
      "Ġcastle": 1976,
      "Ġcushion": 1977,
      "Ġpilot": 1978,
      "Ġpurple": 1979,
      "Ġgenerous": 1980,
      "Ġbirthday": 1981,
      "If": 1982,
      "Sue": 1983,
      "aur": 1984,
      "ek": 1985,
      "eo": 1986,
      "ere": 1987,
      "eer": 1988,
      "gg": 1989,
      "loo": 1990,
      "nic": 1991,
      "pill": 1992,
      "ten": 1993,
      "ture": 1994,
      "tti": 1995,
      "ĠO": 1996,
      "ĠOn": 1997,
      "heart": 1998,
      "hetti": 1999,
      "Ġtid": 2000,
      "Ġtra": 2001,
      "Ġturt": 2002,
      "Ġser": 2003,
      "Ġsign": 2004,
      "Ġwin": 2005,
      "Ġwit": 2006,
      "Ġwom": 2007,
      "Ġwhenever": 2008,
      "Ġwings": 2009,
      "iness": 2010,
      "Ġwand": 2011,
      "Ġba": 2012,
      "Ġbri": 2013,
      "Ġbuck": 2014,
      "Ġbask": 2015,
      "ert": 2016,
      "erpill": 2017,
      "Ġlake": 2018,
      "Ġlast": 2019,
      "Ġluck": 2020,
      "Ġlunch": 2021,
      "Ġcour": 2022,
      "Ġdea": 2023,
      "inger": 2024,
      "Ġpump": 2025,
      "Ġpool": 2026,
      "Ġmummy": 2027,
      "Ġmama": 2028,
      "Ġmountain": 2029,
      "Ġmilk": 2030,
      "Ġoct": 2031,
      "llo": 2032,
      "ence": 2033,
      "ider": 2034,
      "iss": 2035,
      "ness": 2036,
      "Ġsack": 2037,
      "Ġsailed": 2038,
      "Ġstack": 2039,
      "amp": 2040,
      "ĠIsabel": 2041,
      "ĠJust": 2042,
      "Ġrec": 2043,
      "Ġread": 2044,
      "Ġplayful": 2045,
      "Ġshr": 2046,
      "Ġshook": 2047,
      "Ġshadow": 2048,
      "Ġasking": 2049,
      "Ġspag": 2050,
      "Ġjar": 2051,
      "Ġgoat": 2052,
      "Ġclot": 2053,
      "Ġclum": 2054,
      "Ġlog": 2055,
      "Ġhelpful": 2056,
      "Ġmush": 2057,
      "Ġval": 2058,
      "opus": 2059,
      "ÅĵLet": 2060,
      "ĠDanny": 2061,
      "ĠDenise": 2062,
      "Ġkey": 2063,
      "Ġmakes": 2064,
      "ushed": 2065,
      "usie": 2066,
      "Ġbring": 2067,
      "Ġbrush": 2068,
      "Ġintere": 2069,
      "ourite": 2070,
      "Ġtrust": 2071,
      "Soon": 2072,
      "aul": 2073,
      "ĠGary": 2074,
      "Ġcaterpill": 2075,
      "Ġkinds": 2076,
      "Ġcomfortable": 2077,
      "Ġarrow": 2078,
      "Ġcheerful": 2079,
      "Ġdancing": 2080,
      "Ġbedroom": 2081,
      "Ġtower": 2082,
      "Ġcrying": 2083,
      "Ġzip": 2084,
      "Ġcrane": 2085,
      "Ġsweetheart": 2086,
      "Ġdelicate": 2087,
      "Ġorgan": 2088,
      "Ġdinos": 2089,
      "Ġbrightly": 2090,
      "Ġturn": 2091,
      "Ġturned": 2092,
      "Ġturkey": 2093,
      "Ġfavourite": 2094,
      "Ġclimbed": 2095,
      "Ġsnack": 2096,
      "Ġcircles": 2097,
      "Ġvest": 2098,
      "Ġpicnic": 2099,
      "Ġpicture": 2100,
      "Ġproblem": 2101,
      "ĠAlice": 2102,
      "Ġswimming": 2103,
      "Ġimagined": 2104,
      "Ġpushing": 2105,
      "Ġfootball": 2106,
      "Ġwelcome": 2107,
      "Ġreminded": 2108,
      "Ġdisappeared": 2109,
      "Ġhurry": 2110,
      "Ġwrite": 2111,
      "Ġheavy": 2112,
      "ĠRussel": 2113,
      "Ġtiny": 2114,
      "Ġcandle": 2115,
      "Ġturtle": 2116,
      "Ġwitch": 2117,
      "Ġwoman": 2118,
      "Ġbucket": 2119,
      "Ġbasket": 2120,
      "Ġcourse": 2121,
      "Ġdeaf": 2122,
      "Ġpumpkin": 2123,
      "Ġoctopus": 2124,
      "Ġspaghetti": 2125,
      "Ġmushroom": 2126,
      "ÅĵLetÃ¢": 2127,
      "Ġinteresting": 2128,
      "Ġcaterpillar": 2129,
      "Be": 2130,
      "Mum": 2131,
      "Now": 2132,
      "Of": 2133,
      "Where": 2134,
      "Zig": 2135,
      "cage": 2136,
      "cient": 2137,
      "ccept": 2138,
      "ele": 2139,
      "elly": 2140,
      "fant": 2141,
      "hie": 2142,
      "late": 2143,
      "ment": 2144,
      "munk": 2145,
      "sing": 2146,
      "tra": 2147,
      "vous": 2148,
      "yer": 2149,
      "zag": 2150,
      "ĠNo": 2151,
      "Ġsight": 2152,
      "Ġsinging": 2153,
      "Ġwish": 2154,
      "edal": 2155,
      "Ġhoo": 2156,
      "ervous": 2157,
      "Ġhedge": 2158,
      "Ġhello": 2159,
      "Ġlaw": 2160,
      "Ġcor": 2161,
      "Ġcase": 2162,
      "Ġcele": 2163,
      "Ġdi": 2164,
      "Ġdiz": 2165,
      "Ġpour": 2166,
      "Ġpurse": 2167,
      "Ġpedal": 2168,
      "Ġgas": 2169,
      "Ġgate": 2170,
      "arn": 2171,
      "ature": 2172,
      "isted": 2173,
      "ney": 2174,
      "ang": 2175,
      "anged": 2176,
      "Ġhas": 2177,
      "Ġhair": 2178,
      "imp": 2179,
      "Ġeas": 2180,
      "Ġegg": 2181,
      "Ġinfant": 2182,
      "ĠHenry": 2183,
      "Ġbeg": 2184,
      "Ġsock": 2185,
      "cky": 2186,
      "Ġnumber": 2187,
      "Ġnervous": 2188,
      "Ġrad": 2189,
      "Ġrushed": 2190,
      "Ġyarn": 2191,
      "Ġsmelly": 2192,
      "âĤ¬.": 2193,
      "Ġshap": 2194,
      "Ġask": 2195,
      "Ġextra": 2196,
      "Ġancient": 2197,
      "Ġspade": 2198,
      "Ġspicy": 2199,
      "ummer": 2200,
      "illie": 2201,
      "Ġju": 2202,
      "Ġjour": 2203,
      "Ġjeep": 2204,
      "ĠAli": 2205,
      "ĠAccept": 2206,
      "ured": 2207,
      "Ġsea": 2208,
      "ĠBear": 2209,
      "Ġsometimes": 2210,
      "Ġhelping": 2211,
      "ears": 2212,
      "ĠLeo": 2213,
      "Ġworries": 2214,
      "ief": 2215,
      "Ġnosy": 2216,
      "Ġfunny": 2217,
      "Ġchip": 2218,
      "Ġchalk": 2219,
      "Ġvase": 2220,
      "ophie": 2221,
      "ĠWhenever": 2222,
      "ĠWhile": 2223,
      "Ġbirdcage": 2224,
      "ranny": 2225,
      "ife": 2226,
      "Ġscre": 2227,
      "Ġroad": 2228,
      "Ġenv": 2229,
      "Ġenorm": 2230,
      "Ġsadly": 2231,
      "Ġknee": 2232,
      "Ġhold": 2233,
      "Ġtrou": 2234,
      "Ġtrunk": 2235,
      "ĠSoon": 2236,
      "Ġknowing": 2237,
      "ĠGranny": 2238,
      "Ġleak": 2239,
      "Ġbubb": 2240,
      "Ġbugs": 2241,
      "Ġusing": 2242,
      "ĠPeter": 2243,
      "Ġforever": 2244,
      "ĠClaire": 2245,
      "Ġstronger": 2246,
      "Ġzeb": 2247,
      "colate": 2248,
      "Ġpale": 2249,
      "Ġjog": 2250,
      "Ġjoke": 2251,
      "Ġbows": 2252,
      "Ġsounds": 2253,
      "Ġpower": 2254,
      "Ġpowder": 2255,
      "ĠGrandma": 2256,
      "Ġsplash": 2257,
      "Ġrocks": 2258,
      "Ġbarn": 2259,
      "Ġmessy": 2260,
      "Ġunderstood": 2261,
      "Ġballoons": 2262,
      "Ġknife": 2263,
      "Ġchocolate": 2264,
      "Ġmetal": 2265,
      "Ġears": 2266,
      "umbled": 2267,
      "Ġpieces": 2268,
      "body": 2269,
      "Ġguard": 2270,
      "Ġshoes": 2271,
      "Ġanswer": 2272,
      "Ġzipping": 2273,
      "Ġdesk": 2274,
      "Ġcollec": 2275,
      "Ġarms": 2276,
      "Ġcurtains": 2277,
      "Ġhanger": 2278,
      "Ġinclu": 2279,
      "Ġcolourful": 2280,
      "Ġminutes": 2281,
      "Ġperson": 2282,
      "Ġplanet": 2283,
      "Ġpolite": 2284,
      "Ġbald": 2285,
      "Ġrecord": 2286,
      "Ġclothes": 2287,
      "Ġclumsy": 2288,
      "Ġdinosaur": 2289,
      "Zigzag": 2290,
      "Ġhoop": 2291,
      "Ġlawyer": 2292,
      "Ġcorner": 2293,
      "Ġdizzy": 2294,
      "Ġradio": 2295,
      "Ġshapes": 2296,
      "Ġjourney": 2297,
      "ĠAcceptor": 2298,
      "Ġchipmunk": 2299,
      "Ġenormous": 2300,
      "Ġzebra": 2301,
      "Ben": 2302,
      "Char": 2303,
      "Em": 2304,
      "Frank": 2305,
      "Mary": 2306,
      "Okay": 2307,
      "Sure": 2308,
      "Well": 2309,
      "ale": 2310,
      "cil": 2311,
      "ches": 2312,
      "ded": 2313,
      "gn": 2314,
      "ges": 2315,
      "gular": 2316,
      "hood": 2317,
      "man": 2318,
      "mined": 2319,
      "old": 2320,
      "par": 2321,
      "rs": 2322,
      "sit": 2323,
      "uched": 2324,
      "Ġer": 2325,
      "Ġind": 2326,
      "head": 2327,
      "Ġtable": 2328,
      "Ġaw": 2329,
      "Ġahead": 2330,
      "Ġsitt": 2331,
      "Ġsilly": 2332,
      "Ġsummer": 2333,
      "Ġwra": 2334,
      "Ġwip": 2335,
      "ina": 2336,
      "inal": 2337,
      "Ġwag": 2338,
      "Ġwake": 2339,
      "Ġwaist": 2340,
      "Ġbreat": 2341,
      "Ġbike": 2342,
      "Ġtoug": 2343,
      "Ġtouched": 2344,
      "Ġhop": 2345,
      "ita": 2346,
      "rew": 2347,
      "Ġfan": 2348,
      "Ġlater": 2349,
      "Ġlying": 2350,
      "Ġcal": 2351,
      "Ġdir": 2352,
      "Ġdirt": 2353,
      "Ġdeter": 2354,
      "Ġdependable": 2355,
      "Ġpin": 2356,
      "Ġple": 2357,
      "Ġpudd": 2358,
      "Ġpop": 2359,
      "Ġmad": 2360,
      "Ġmout": 2361,
      "Ġmug": 2362,
      "Ġob": 2363,
      "Ġgif": 2364,
      "Ġgigg": 2365,
      "lls": 2366,
      "ayak": 2367,
      "Ġsang": 2368,
      "Ġsauce": 2369,
      "Ġhairy": 2370,
      "Ġthumb": 2371,
      "Ġthrew": 2372,
      "ĠSusie": 2373,
      "ĠSophie": 2374,
      "ete": 2375,
      "Ġeart": 2376,
      "Ġur": 2377,
      "Ġstir": 2378,
      "Ġstood": 2379,
      "Ġstep": 2380,
      "Ġstumbled": 2381,
      "Ġnature": 2382,
      "oting": 2383,
      "Ġround": 2384,
      "iginal": 2385,
      "oof": 2386,
      "Ġdays": 2387,
      "aled": 2388,
      "ilt": 2389,
      "Ġweal": 2390,
      "Ġweight": 2391,
      "Ġweak": 2392,
      "Ġref": 2393,
      "Ġrequ": 2394,
      "Ġreco": 2395,
      "Ġresp": 2396,
      "Ġregular": 2397,
      "Ġwhis": 2398,
      "Ġshore": 2399,
      "Ġash": 2400,
      "Ġkitc": 2401,
      "Ġkayak": 2402,
      "Ġspider": 2403,
      "Ġlily": 2404,
      "ĠMan": 2405,
      "ĠMae": 2406,
      "ĠMillie": 2407,
      "!\".": 2408,
      "Ġsepar": 2409,
      "ĠEventually": 2410,
      "Ġclay": 2411,
      "Ġstart": 2412,
      "getable": 2413,
      "iest": 2414,
      "que": 2415,
      "Ġnose": 2416,
      "Ġchased": 2417,
      "Ġmeant": 2418,
      "ĠJacky": 2419,
      "ÅĵYou": 2420,
      "ÅĵYes": 2421,
      "ÅĵNo": 2422,
      "ÅĵCan": 2423,
      "Ġcoat": 2424,
      "Ġscary": 2425,
      "ĠDependable": 2426,
      "Ġrolled": 2427,
      "Ġtwist": 2428,
      "Ġgrab": 2429,
      "ĠFin": 2430,
      "Ġhose": 2431,
      "Ġtrue": 2432,
      "orts": 2433,
      "ction": 2434,
      "Ġjumping": 2435,
      "Ġneedle": 2436,
      "Ġcube": 2437,
      "Ġbuilt": 2438,
      "Ġdelight": 2439,
      "Ġdeligh": 2440,
      "Ġboats": 2441,
      "ĠPete": 2442,
      "Hey": 2443,
      "Ġbehave": 2444,
      "ĠEmmy": 2445,
      "Ġcontent": 2446,
      "ixie": 2447,
      "Ġoriginal": 2448,
      "Ġexplored": 2449,
      "ocked": 2450,
      "Ġsounded": 2451,
      "Ġprep": 2452,
      "Ġnearby": 2453,
      "Ġsleepy": 2454,
      "Ġpowerful": 2455,
      "Ġpaint": 2456,
      "Ġdrive": 2457,
      "Ġbarrel": 2458,
      "Ġcolors": 2459,
      "Ġsaying": 2460,
      "Ġhappening": 2461,
      "ependent": 2462,
      "Ġvegetable": 2463,
      "Ġgroup": 2464,
      "Ġoranges": 2465,
      "Ġchose": 2466,
      "Ġstones": 2467,
      "Ġdiscover": 2468,
      "Ġcounting": 2469,
      "Ġthankful": 2470,
      "Ġpushed": 2471,
      "Ġpackage": 2472,
      "Ġanswered": 2473,
      "Ġchickens": 2474,
      "Ġzipped": 2475,
      "Ġbushes": 2476,
      "Ġthinking": 2477,
      "Ġstudy": 2478,
      "ĠBecky": 2479,
      "âĤ¬âĢľ": 2480,
      "âĤ¬âĢĿ": 2481,
      "Ġneighb": 2482,
      "Ġbeef": 2483,
      "Ġsparkly": 2484,
      "ĠCharlie": 2485,
      "Ġwishes": 2486,
      "Ġpencil": 2487,
      "Ġunique": 2488,
      "Ġsplashed": 2489,
      "Ġtidy": 2490,
      "Ġserious": 2491,
      "Ġcelebr": 2492,
      "Ġscreamed": 2493,
      "Ġenvious": 2494,
      "Ġeraser": 2495,
      "Ġindependent": 2496,
      "Ġsitting": 2497,
      "Ġbreath": 2498,
      "Ġtough": 2499,
      "Ġdirty": 2500,
      "Ġdetermined": 2501,
      "Ġmouth": 2502,
      "Ġearth": 2503,
      "Ġrequest": 2504,
      "Ġrecogn": 2505,
      "Ġkitchen": 2506,
      "Ġdelighted": 2507,
      "Ġvegetables": 2508,
      "\",": 2509,
      "How": 2510,
      "Jill": 2511,
      "Please": 2512,
      "Tommy": 2513,
      "acy": 2514,
      "bug": 2515,
      "can": 2516,
      "ee": 2517,
      "eked": 2518,
      "ext": 2519,
      "fra": 2520,
      "fic": 2521,
      "ier": 2522,
      "iant": 2523,
      "lb": 2524,
      "lf": 2525,
      "lo": 2526,
      "lcan": 2527,
      "met": 2528,
      "nit": 2529,
      "ove": 2530,
      "reddy": 2531,
      "sist": 2532,
      "tor": 2533,
      "uable": 2534,
      "wed": 2535,
      "wards": 2536,
      "zer": 2537,
      "zor": 2538,
      "zard": 2539,
      "Ġed": 2540,
      "ĠZigzag": 2541,
      "Ġtun": 2542,
      "Ġtask": 2543,
      "Ġafra": 2544,
      "Ġsis": 2545,
      "Ġsne": 2546,
      "Ġsil": 2547,
      "Ġsur": 2548,
      "Ġsoup": 2549,
      "Ġsince": 2550,
      "Ġsighed": 2551,
      "Ġwore": 2552,
      "ines": 2553,
      "ination": 2554,
      "Ġbal": 2555,
      "Ġblew": 2556,
      "Ġbicy": 2557,
      "Ġtomor": 2558,
      "Ġhidd": 2559,
      "Ġfather": 2560,
      "Ġla": 2561,
      "Ġcard": 2562,
      "Ġcried": 2563,
      "Ġcrow": 2564,
      "Ġcandy": 2565,
      "Ġdead": 2566,
      "Ġpile": 2567,
      "Ġpenny": 2568,
      "Ġmay": 2569,
      "Ġmot": 2570,
      "Ġmention": 2571,
      "arp": 2572,
      "lliant": 2573,
      "ens": 2574,
      "ishing": 2575,
      "There": 2576,
      "Ġsaf": 2577,
      "Ġsave": 2578,
      "ĠitÃ¢": 2579,
      "ora": 2580,
      "orge": 2581,
      "Ġinve": 2582,
      "ird": 2583,
      "ony": 2584,
      "Ġbeam": 2585,
      "Ġstra": 2586,
      "Ġstick": 2587,
      "Ġstamp": 2588,
      "oth": 2589,
      "Ġringing": 2590,
      "Ġroof": 2591,
      "Ġoften": 2592,
      "stig": 2593,
      "Ġyaw": 2594,
      "ilty": 2595,
      "Ġwearing": 2596,
      "Ġweek": 2597,
      "Ġsmo": 2598,
      "Ġrece": 2599,
      "Ġreve": 2600,
      "chor": 2601,
      "Ġforward": 2602,
      "Ġnest": 2603,
      "Ġshut": 2604,
      "Ġsharp": 2605,
      "Ġanchor": 2606,
      "Ġspray": 2607,
      "Ġlizard": 2608,
      "ĠMrs": 2609,
      "ĠTed": 2610,
      "inda": 2611,
      "indy": 2612,
      "Ġdoves": 2613,
      "Ġhelmet": 2614,
      "Ġstars": 2615,
      "aged": 2616,
      "Ġalert": 2617,
      "ĠLacy": 2618,
      "Ġexcitedly": 2619,
      "ĠcanÃ¢": 2620,
      "Ġchir": 2621,
      "Ġchore": 2622,
      "Ġchanged": 2623,
      "Ġmuff": 2624,
      "Ġabove": 2625,
      "Ġmanaged": 2626,
      "ĠWill": 2627,
      "ÅĵThat": 2628,
      "Ġscare": 2629,
      "pty": 2630,
      "Ġquit": 2631,
      "Ġrob": 2632,
      "Ġener": 2633,
      "Ġtwisted": 2634,
      "Ġsunset": 2635,
      "Ġskull": 2636,
      "ĠcouldnÃ¢": 2637,
      "Ġsmaller": 2638,
      "berry": 2639,
      "Ġlearnt": 2640,
      "Ġlearning": 2641,
      "bbon": 2642,
      "apa": 2643,
      "ĠGina": 2644,
      "Ġshowing": 2645,
      "Ġneeds": 2646,
      "Ġcup": 2647,
      "Ġpeeked": 2648,
      "Ġstove": 2649,
      "Ġbulb": 2650,
      "Ġfridge": 2651,
      "Ġvolcan": 2652,
      "ĠPaul": 2653,
      "ĠPapa": 2654,
      "Ġflut": 2655,
      "Ġflame": 2656,
      "Ġdiffic": 2657,
      "Ġboxes": 2658,
      "Ġsafely": 2659,
      "Ġsteal": 2660,
      "liver": 2661,
      "Ġclever": 2662,
      "Ġappro": 2663,
      "Ġbowl": 2664,
      "Ġmatching": 2665,
      "Ġgiving": 2666,
      "Ġribbon": 2667,
      "Ġrubbed": 2668,
      "Ġgrew": 2669,
      "ĠLetÃ¢": 2670,
      "ĠToday": 2671,
      "Ġharsh": 2672,
      "Ġsplit": 2673,
      "Ġquietly": 2674,
      "Ġfurnit": 2675,
      "Ġfreezer": 2676,
      "Ġlanded": 2677,
      "Ġgently": 2678,
      "Ġfixed": 2679,
      "Ġsearch": 2680,
      "Ġsearched": 2681,
      "Ġlovely": 2682,
      "Ġladybug": 2683,
      "Ġmessage": 2684,
      "Ġyelled": 2685,
      "Ġhappens": 2686,
      "Ġempty": 2687,
      "Ġdiscovery": 2688,
      "Ġsailor": 2689,
      "Ġrazor": 2690,
      "Ġadmired": 2691,
      "Ġpretended": 2692,
      "Ġguilty": 2693,
      "Ġmodest": 2694,
      "Ġshooting": 2695,
      "ĠAnna": 2696,
      "Ġbusy": 2697,
      "Ġdistance": 2698,
      "Ġhealthy": 2699,
      "Ġstrugg": 2700,
      "Ġriding": 2701,
      "Ġneighbor": 2702,
      "airs": 2703,
      "Ġentered": 2704,
      "Ġpastry": 2705,
      "Ġpractice": 2706,
      "Ġcarrots": 2707,
      "ĠKate": 2708,
      "Ġhungry": 2709,
      "Ġinstead": 2710,
      "Ġbrilliant": 2711,
      "Ġlucky": 2712,
      "Ġvaluable": 2713,
      "Ġgasped": 2714,
      "Ġbegin": 2715,
      "Ġholding": 2716,
      "Ġcollecting": 2717,
      "Ġfancy": 2718,
      "Ġcalm": 2719,
      "Ġpopular": 2720,
      "Ġwhisper": 2721,
      "Ġedge": 2722,
      "Ġafraid": 2723,
      "Ġsister": 2724,
      "Ġsilver": 2725,
      "Ġtomorrow": 2726,
      "Ġhidden": 2727,
      "Ġinvestig": 2728,
      "Ġyawned": 2729,
      "Ġmuffin": 2730,
      "Ġvolcano": 2731,
      "Ġdifficult": 2732,
      "Ġfurniture": 2733,
      "Ġinvestigate": 2734,
      "'.": 2735,
      "Daisy": 2736,
      "Eventually": 2737,
      "Ella": 2738,
      "Gra": 2739,
      "Jim": 2740,
      "Jenny": 2741,
      "Maybe": 2742,
      "St": 2743,
      "bled": 2744,
      "cise": 2745,
      "dad": 2746,
      "ever": 2747,
      "eleph": 2748,
      "eorge": 2749,
      "gy": 2750,
      "ging": 2751,
      "gly": 2752,
      "gust": 2753,
      "hlo": 2754,
      "ler": 2755,
      "lar": 2756,
      "med": 2757,
      "mmer": 2758,
      "not": 2759,
      "nail": 2760,
      "ola": 2761,
      "ping": 2762,
      "pted": 2763,
      "pack": 2764,
      "ser": 2765,
      "sel": 2766,
      "uit": 2767,
      "uel": 2768,
      "vice": 2769,
      "zen": 2770,
      "Ġign": 2771,
      "Ġtick": 2772,
      "Ġtears": 2773,
      "Ġteleph": 2774,
      "Ġsug": 2775,
      "Ġsong": 2776,
      "Ġsudden": 2777,
      "Ġsorts": 2778,
      "Ġwrot": 2779,
      "Ġbent": 2780,
      "Ġbur": 2781,
      "Ġbought": 2782,
      "Ġband": 2783,
      "Ġboun": 2784,
      "Ġhit": 2785,
      "Ġhay": 2786,
      "oura": 2787,
      "Ġfing": 2788,
      "Ġfountain": 2789,
      "Ġfishing": 2790,
      "Ġfuel": 2791,
      "Ġlay": 2792,
      "Ġlad": 2793,
      "Ġlend": 2794,
      "Ġcr": 2795,
      "Ġcane": 2796,
      "Ġcoun": 2797,
      "Ġduck": 2798,
      "Ġdrank": 2799,
      "Ġdeer": 2800,
      "Ġpot": 2801,
      "Ġpill": 2802,
      "Ġmer": 2803,
      "Ġmar": 2804,
      "Ġmel": 2805,
      "Ġmix": 2806,
      "Ġoven": 2807,
      "Ġgames": 2808,
      "omed": 2809,
      "ises": 2810,
      "let": 2811,
      "leton": 2812,
      "Ġsand": 2813,
      "Ġsaus": 2814,
      "Ġhammer": 2815,
      "Ġthief": 2816,
      "Ġitch": 2817,
      "imon": 2818,
      "orcy": 2819,
      "ĠSome": 2820,
      "Ġesp": 2821,
      "Ġinv": 2822,
      "Ġbelow": 2823,
      "cked": 2824,
      "Ġugly": 2825,
      "Ġring": 2826,
      "stal": 2827,
      "keleton": 2828,
      "amond": 2829,
      "Ġupset": 2830,
      "Ġhadn": 2831,
      "Ġweird": 2832,
      "unately": 2833,
      "ĠJen": 2834,
      "Ġrefused": 2835,
      "Ġonce": 2836,
      "Ġforth": 2837,
      "Ġwhale": 2838,
      "Ġnet": 2839,
      "Ġneat": 2840,
      "Ġneck": 2841,
      "Ġshape": 2842,
      "Ġexer": 2843,
      "Ġexper": 2844,
      "Ġspike": 2845,
      "tern": 2846,
      "Ġbiggest": 2847,
      "Ġliving": 2848,
      "ĠMaisy": 2849,
      "ĠMike": 2850,
      "ĠMama": 2851,
      "Ġdoll": 2852,
      "ĠBill": 2853,
      "ĠBaby": 2854,
      "ĠEach": 2855,
      "Ġfeed": 2856,
      "Ġfeather": 2857,
      "Ġloves": 2858,
      "ĠLinda": 2859,
      "Ġrang": 2860,
      "Ġagree": 2861,
      "Ġnobody": 2862,
      "Ġcannot": 2863,
      "Ġchas": 2864,
      "Ġmusc": 2865,
      "Ġeveryday": 2866,
      "Ġthemsel": 2867,
      "ecially": 2868,
      "ĠWould": 2869,
      "ÅĵIt": 2870,
      "ÅĵHello": 2871,
      "Ġscar": 2872,
      "ĠDo": 2873,
      "Ġisn": 2874,
      "Ġgrace": 2875,
      "ĠFred": 2876,
      "Ġpoor": 2877,
      "Ġskirt": 2878,
      "ateful": 2879,
      "ourhood": 2880,
      "Ġadvice": 2881,
      "Ġoffer": 2882,
      "Ġoffered": 2883,
      "Ġways": 2884,
      "umpy": 2885,
      "Ġswinging": 2886,
      "berries": 2887,
      "Ġbeauty": 2888,
      "Ġremain": 2889,
      "Ġleash": 2890,
      "Ġfine": 2891,
      "Ġfinish": 2892,
      "Ġeye": 2893,
      "Ġframe": 2894,
      "Ġfruit": 2895,
      "ĠPolly": 2896,
      "ĠPixie": 2897,
      "Ġchewed": 2898,
      "ĠCan": 2899,
      "Ġflu": 2900,
      "Ġcurios": 2901,
      "Ġstorm": 2902,
      "Ġdisgust": 2903,
      "Ġtasty": 2904,
      "Ġcrystal": 2905,
      "Ġgloom": 2906,
      "Ġglass": 2907,
      "Ġprinting": 2908,
      "Ġsecond": 2909,
      "Ġpattern": 2910,
      "ngth": 2911,
      "Ġcreative": 2912,
      "Ġshoulder": 2913,
      "Ġtalked": 2914,
      "Ġappear": 2915,
      "ĠNora": 2916,
      "Ġgiven": 2917,
      "Ġrich": 2918,
      "Ġlead": 2919,
      "Ġmonkey": 2920,
      "Ġlandscape": 2921,
      "Ġelf": 2922,
      "Ġsnail": 2923,
      "Ġangel": 2924,
      "Ġclapping": 2925,
      "Ġowners": 2926,
      "Ġplants": 2927,
      "Ġfloor": 2928,
      "Ġgrateful": 2929,
      "Ġfrozen": 2930,
      "Ġstrength": 2931,
      "ÅĵIÃ¢": 2932,
      "Ġsuitc": 2933,
      "Ġdiscovered": 2934,
      "Ġraced": 2935,
      "Ġrelaxed": 2936,
      "Ġthanks": 2937,
      "Ġfolding": 2938,
      "Ġmystery": 2939,
      "Ġbuilding": 2940,
      "Ġtightly": 2941,
      "Ġattract": 2942,
      "Ġbottle": 2943,
      "Ġpacked": 2944,
      "Ġmiss": 2945,
      "ĠAnnie": 2946,
      "Ġclimbing": 2947,
      "Ġcute": 2948,
      "Ġgrowing": 2949,
      "Ġshelf": 2950,
      "Ġshelter": 2951,
      "Ġstring": 2952,
      "Ġrides": 2953,
      "Ġcollect": 2954,
      "Ġcrawl": 2955,
      "Ġunderstanding": 2956,
      "Ġbathroom": 2957,
      "Ġclouds": 2958,
      "Ġimpro": 2959,
      "ĠCharles": 2960,
      "Ġwindows": 2961,
      "ĠKari": 2962,
      "Ġbored": 2963,
      "Ġhiding": 2964,
      "Ġfireman": 2965,
      "Ġglowed": 2966,
      "Ġants": 2967,
      "Ġlively": 2968,
      "looking": 2969,
      "ĠOliver": 2970,
      "issa": 2971,
      "Ġshrimp": 2972,
      "Ġsnacks": 2973,
      "Ġpictures": 2974,
      "Ġdiamond": 2975,
      "Ġjuicy": 2976,
      "Ġincluded": 2977,
      "Charlie": 2978,
      "Ġwiped": 2979,
      "Ġwagon": 2980,
      "Ġpleased": 2981,
      "Ġpuddle": 2982,
      "Ġgiggled": 2983,
      "Ġwealthy": 2984,
      "Ġseparated": 2985,
      "Ġneighbourhood": 2986,
      "Ġtuna": 2987,
      "Ġbicycle": 2988,
      "Ġlazy": 2989,
      "Ġmotorcy": 2990,
      "Ġchores": 2991,
      "ÅĵThatÃ¢": 2992,
      "Ġrobot": 2993,
      "Ġenergy": 2994,
      "hloe": 2995,
      "larissa": 2996,
      "Ġtelephone": 2997,
      "Ġsuggest": 2998,
      "Ġwrote": 2999,
      "Ġfingers": 3000,
      "Ġladder": 3001,
      "Ġespecially": 3002,
      "Ġexperi": 3003,
      "Ġchasing": 3004,
      "Ġthemselves": 3005,
      "Ġcuriosity": 3006,
      "Ġgloomy": 3007,
      "Ġsuitcase": 3008,
      "Ġmotorcycle": 3009,
      "Ann": 3010,
      "Benny": 3011,
      "Billy": 3012,
      "Henry": 3013,
      "June": 3014,
      "Me": 3015,
      "Mama": 3016,
      "Next": 3017,
      "Peter": 3018,
      "Rita": 3019,
      "Un": 3020,
      "aced": 3021,
      "bw": 3022,
      "big": 3023,
      "bur": 3024,
      "com": 3025,
      "dled": 3026,
      "eat": 3027,
      "ese": 3028,
      "fie": 3029,
      "hh": 3030,
      "ipped": 3031,
      "ible": 3032,
      "iately": 3033,
      "lace": 3034,
      "oor": 3035,
      "ointed": 3036,
      "pid": 3037,
      "peat": 3038,
      "ruce": 3039,
      "tiest": 3040,
      "year": 3041,
      "zie": 3042,
      "Ġicy": 3043,
      "heel": 3044,
      "Ġtie": 3045,
      "Ġtied": 3046,
      "Ġtak": 3047,
      "Ġsour": 3048,
      "Ġsli": 3049,
      "Ġwine": 3050,
      "Ġwheel": 3051,
      "Ġthese": 3052,
      "eds": 3053,
      "inked": 3054,
      "Ġwaves": 3055,
      "Ġben": 3056,
      "Ġbet": 3057,
      "Ġbare": 3058,
      "Ġbree": 3059,
      "Ġtodd": 3060,
      "Ġhig": 3061,
      "Ġhive": 3062,
      "ited": 3063,
      "res": 3064,
      "rept": 3065,
      "Ġfake": 3066,
      "Ġfence": 3067,
      "erable": 3068,
      "Ġhesit": 3069,
      "Ġletter": 3070,
      "Ġlumber": 3071,
      "Ġlines": 3072,
      "Ġca": 3073,
      "Ġcri": 3074,
      "Ġcomet": 3075,
      "Ġcrept": 3076,
      "Ġde": 3077,
      "Ġdig": 3078,
      "Ġdug": 3079,
      "Ġpay": 3080,
      "Ġpri": 3081,
      "Ġpad": 3082,
      "Ġok": 3083,
      "Ġoak": 3084,
      "Ġgar": 3085,
      "atient": 3086,
      "omas": 3087,
      "ides": 3088,
      "net": 3089,
      "leep": 3090,
      "ans": 3091,
      "Ġhairc": 3092,
      "Ġitself": 3093,
      "imed": 3094,
      "ĠSnail": 3095,
      "Ġinsist": 3096,
      "Ġbeside": 3097,
      "Ġbeans": 3098,
      "Ġsoar": 3099,
      "Ġsoak": 3100,
      "owed": 3101,
      "cess": 3102,
      "cepted": 3103,
      "Ġnail": 3104,
      "ots": 3105,
      "Ġrough": 3106,
      "stairs": 3107,
      "Ġhistor": 3108,
      "ĠIf": 3109,
      "Ġplaced": 3110,
      "ilbur": 3111,
      "Ġweep": 3112,
      "Ġweap": 3113,
      "Ġweighed": 3114,
      "Ġrever": 3115,
      "Ġreind": 3116,
      "Ġwhist": 3117,
      "ected": 3118,
      "Ġhappiness": 3119,
      "seum": 3120,
      "Ġshone": 3121,
      "Ġasleep": 3122,
      "ugged": 3123,
      "Ġexp": 3124,
      "Ġspoon": 3125,
      "Ġlip": 3126,
      "Ġboss": 3127,
      "Ġbody": 3128,
      "Ġboots": 3129,
      "Ġjug": 3130,
      "ĠMel": 3131,
      "ĠMouse": 3132,
      "ĠMinnie": 3133,
      "ĠTilly": 3134,
      "ĠTeddy": 3135,
      "ĠTony": 3136,
      "ĠAt": 3137,
      "!\",": 3138,
      "Ġdolly": 3139,
      "Ġseat": 3140,
      "Ġseas": 3141,
      "Ġseeds": 3142,
      "Ġexcla": 3143,
      "ĠEven": 3144,
      "Ġclick": 3145,
      "Ġfear": 3146,
      "Ġstarting": 3147,
      "Ġhelpless": 3148,
      "Ġnote": 3149,
      "ĠLiz": 3150,
      "iew": 3151,
      "Ġchain": 3152,
      "Ġchance": 3153,
      "Ġmud": 3154,
      "Ġmuseum": 3155,
      "Ġvet": 3156,
      "Ġview": 3157,
      "Ġagainst": 3158,
      "Ġmemor": 3159,
      "ĠWinnie": 3160,
      "ÅĵW": 3161,
      "Ġcover": 3162,
      "Ġcobw": 3163,
      "Ġolder": 3164,
      "ĠDon": 3165,
      "ĠDave": 3166,
      "Ġquite": 3167,
      "Ġquest": 3168,
      "Ġcareless": 3169,
      "ĠJoy": 3170,
      "ĠEverything": 3171,
      "Ġones": 3172,
      "Ġnews": 3173,
      "Ġtwirl": 3174,
      "Ġclock": 3175,
      "Ġbridge": 3176,
      "mand": 3177,
      "maid": 3178,
      "Ġbloom": 3179,
      "Ġblinked": 3180,
      "ĠFirst": 3181,
      "Ġpoem": 3182,
      "Ġskip": 3183,
      "Ġskipped": 3184,
      "ella": 3185,
      "Ġcalling": 3186,
      "Ġbeak": 3187,
      "Ġfinding": 3188,
      "Ġsword": 3189,
      "Ġmyself": 3190,
      "Ġoverjoy": 3191,
      "Ġwolf": 3192,
      "Ġproudly": 3193,
      "bbing": 3194,
      "Ġfastest": 3195,
      "ĠdidnÃ¢": 3196,
      "Ġcars": 3197,
      "ĠGive": 3198,
      "ĠGeorge": 3199,
      "Ġleaf": 3200,
      "Ġyourself": 3201,
      "Ġmagnet": 3202,
      "Ġimmed": 3203,
      "Ġpebb": 3204,
      "ĠJoey": 3205,
      "Ġkindness": 3206,
      "Ġhanded": 3207,
      "Jacky": 3208,
      "Ġwaiting": 3209,
      "Ġcheese": 3210,
      "ĠCome": 3211,
      "ĠCindy": 3212,
      "ĠChloe": 3213,
      "Ġprettiest": 3214,
      "Ġaccepted": 3215,
      "Ġfarm": 3216,
      "Ġunpack": 3217,
      "Ġclearing": 3218,
      "Ġheaded": 3219,
      "Ġord": 3220,
      "Ġbowed": 3221,
      "Ġslept": 3222,
      "Ġloudly": 3223,
      "Ġperm": 3224,
      "Ġrubbing": 3225,
      "Ġsleeping": 3226,
      "Ġdrew": 3227,
      "Ġdressed": 3228,
      "Ġpainted": 3229,
      "Ġbrothers": 3230,
      "Ġbelongs": 3231,
      "Ġbarber": 3232,
      "Ġpromise": 3233,
      "Ġcreatures": 3234,
      "Ġblankets": 3235,
      "Ġmoments": 3236,
      "Ġfloated": 3237,
      "Ġcleaning": 3238,
      "Ġtriang": 3239,
      "Ġgrumpy": 3240,
      "Ġprincess": 3241,
      "Ġknob": 3242,
      "Ġsuper": 3243,
      "ĠThomas": 3244,
      "ĠAlfie": 3245,
      "Ġgrandma": 3246,
      "Ġfolded": 3247,
      "Ġimagination": 3248,
      "board": 3249,
      "Ġslides": 3250,
      "Ġdreams": 3251,
      "fortunately": 3252,
      "Ġmiserable": 3253,
      "Everyone": 3254,
      "Ġdistur": 3255,
      "Ġdistant": 3256,
      "Ġbuttons": 3257,
      "Ġmeeting": 3258,
      "Ġdisappointed": 3259,
      "Ġcrawled": 3260,
      "Ġcrawling": 3261,
      "Ġentire": 3262,
      "Ġwandered": 3263,
      "Ġbooks": 3264,
      "Ġpracticed": 3265,
      "Ġdoesn": 3266,
      "Ġimpatient": 3267,
      "Ġcomplet": 3268,
      "Ġminute": 3269,
      "Daddy": 3270,
      "Ġadding": 3271,
      "Ġwalls": 3272,
      "Ġborrow": 3273,
      "Ġkicked": 3274,
      "Together": 3275,
      "Today": 3276,
      "Ġtreats": 3277,
      "Ġstretch": 3278,
      "Ġstretched": 3279,
      "Ġlegs": 3280,
      "Ġtrap": 3281,
      "Ġshadows": 3282,
      "Ġorganized": 3283,
      "Ġorganize": 3284,
      "Ġturns": 3285,
      "Ġeasier": 3286,
      "Ġtrouble": 3287,
      "Ġtroubled": 3288,
      "Ġleaks": 3289,
      "Ġbubble": 3290,
      "Ġawe": 3291,
      "Ġwrapped": 3292,
      "Ġobser": 3293,
      "Ġgift": 3294,
      "Ġurged": 3295,
      "Ġrefle": 3296,
      "Ġprepare": 3297,
      "Ġdiscovering": 3298,
      "Ġcelebrate": 3299,
      "Ġrecognized": 3300,
      "Ġsnee": 3301,
      "Ġbalan": 3302,
      "Ġcrowd": 3303,
      "Ġmayor": 3304,
      "Ġsafer": 3305,
      "Ġstraw": 3306,
      "Ġsmooth": 3307,
      "Ġreceive": 3308,
      "Ġrevealed": 3309,
      "Ġchirping": 3310,
      "Ġflute": 3311,
      "Ġneighbors": 3312,
      "Ġbeginning": 3313,
      "Ġignor": 3314,
      "Ġtickled": 3315,
      "Ġbounce": 3316,
      "Ġcounted": 3317,
      "Ġmermaid": 3318,
      "Ġmelon": 3319,
      "Ġnecklace": 3320,
      "Ġexercise": 3321,
      "Ġfeathers": 3322,
      "Ġagreement": 3323,
      "Ġmuscles": 3324,
      "Ġscarf": 3325,
      "Ġfluffy": 3326,
      "Ġdisgusting": 3327,
      "Ġattractive": 3328,
      "Ġsuggested": 3329,
      "Unfortunately": 3330,
      "bigail": 3331,
      "Ġtaken": 3332,
      "Ġbarely": 3333,
      "Ġbreeze": 3334,
      "Ġtoddler": 3335,
      "Ġhigher": 3336,
      "Ġcrib": 3337,
      "Ġpaddled": 3338,
      "Ġgarage": 3339,
      "Ġhaircut": 3340,
      "Ġhistory": 3341,
      "Ġweapon": 3342,
      "Ġreindeer": 3343,
      "Ġbossy": 3344,
      "Ġexclaimed": 3345,
      "ĠLizzie": 3346,
      "Ġcobweb": 3347,
      "Ġoverjoyed": 3348,
      "Ġimmediately": 3349,
      "Ġtriangle": 3350,
      "Ġcomplete": 3351,
      "'ve": 3352,
      "Al": 3353,
      "All": 3354,
      "Clarissa": 3355,
      "Danny": 3356,
      "Fluffy": 3357,
      "Freddy": 3358,
      "Ginger": 3359,
      "Hel": 3360,
      "Lola": 3361,
      "Mae": 3362,
      "Ok": 3363,
      "Paul": 3364,
      "Qu": 3365,
      "Ru": 3366,
      "Rachel": 3367,
      "Since": 3368,
      "Until": 3369,
      "Who": 3370,
      "ait": 3371,
      "aked": 3372,
      "apped": 3373,
      "aving": 3374,
      "aff": 3375,
      "action": 3376,
      "bway": 3377,
      "cet": 3378,
      "du": 3379,
      "eath": 3380,
      "fit": 3381,
      "fast": 3382,
      "ga": 3383,
      "ib": 3384,
      "iver": 3385,
      "ject": 3386,
      "ker": 3387,
      "ls": 3388,
      "lock": 3389,
      "mo": 3390,
      "momet": 3391,
      "ose": 3392,
      "oga": 3393,
      "ru": 3394,
      "right": 3395,
      "ruck": 3396,
      "rmomet": 3397,
      "son": 3398,
      "tle": 3399,
      "tune": 3400,
      "uzy": 3401,
      "ucet": 3402,
      "vide": 3403,
      "ween": 3404,
      "xe": 3405,
      "zement": 3406,
      "ĊĠ": 3407,
      "Ġx": 3408,
      "Ġig": 3409,
      "ĠĠĊ": 3410,
      "hells": 3411,
      "Ġter": 3412,
      "Ġtax": 3413,
      "Ġtip": 3414,
      "Ġap": 3415,
      "Ġaxe": 3416,
      "Ġsing": 3417,
      "Ġsent": 3418,
      "Ġsway": 3419,
      "Ġsick": 3420,
      "Ġsip": 3421,
      "Ġsize": 3422,
      "Ġtheater": 3423,
      "Ġthermomet": 3424,
      "Ġblow": 3425,
      "Ġtoes": 3426,
      "itive": 3427,
      "ready": 3428,
      "resh": 3429,
      "ressed": 3430,
      "repeat": 3431,
      "Ġfle": 3432,
      "Ġfir": 3433,
      "Ġfil": 3434,
      "Ġfreed": 3435,
      "Ġfinger": 3436,
      "Ġfresh": 3437,
      "ercy": 3438,
      "Ġled": 3439,
      "Ġlid": 3440,
      "Ġline": 3441,
      "Ġlect": 3442,
      "Ġlaser": 3443,
      "Ġcudd": 3444,
      "Ġcook": 3445,
      "Ġcity": 3446,
      "Ġcoura": 3447,
      "Ġdra": 3448,
      "Ġdest": 3449,
      "Ġmall": 3450,
      "Ġmist": 3451,
      "Ġmail": 3452,
      "Ġoas": 3453,
      "Ġgun": 3454,
      "Ġgust": 3455,
      "ating": 3456,
      "enge": 3457,
      "ising": 3458,
      "issed": 3459,
      "Ġsaved": 3460,
      "Ġsaving": 3461,
      "Ġthrow": 3462,
      "Ġthirst": 3463,
      "Ġthose": 3464,
      "ĠSimon": 3465,
      "ĠSkeleton": 3466,
      "etitive": 3467,
      "vers": 3468,
      "Ġevent": 3469,
      "Ġemer": 3470,
      "onse": 3471,
      "Ġherb": 3472,
      "ĠHow": 3473,
      "Ġsoared": 3474,
      "Ġsoaring": 3475,
      "cks": 3476,
      "Ġstage": 3477,
      "Ġstair": 3478,
      "Ġstaff": 3479,
      "Ġnic": 3480,
      "Ġnurse": 3481,
      "oto": 3482,
      "Ġrow": 3483,
      "stead": 3484,
      "igent": 3485,
      "oose": 3486,
      "rible": 3487,
      "Ġyet": 3488,
      "Ġyoga": 3489,
      "alph": 3490,
      "Ġreach": 3491,
      "chief": 3492,
      "Ġfortune": 3493,
      "allenge": 3494,
      "Ġshout": 3495,
      "Ġshort": 3496,
      "Ġshaking": 3497,
      "Ġsharing": 3498,
      "Ġshocked": 3499,
      "Ġkiss": 3500,
      "Ġkissed": 3501,
      "Ġspun": 3502,
      "Ġspend": 3503,
      "Ġspace": 3504,
      "Ġlif": 3505,
      "Ġlibr": 3506,
      "Ġje": 3507,
      "Ġjail": 3508,
      "Ġjunk": 3509,
      "ĠIts": 3510,
      "ĠMum": 3511,
      "ĠMaybe": 3512,
      "urous": 3513,
      "Ġgoal": 3514,
      "ĠBruce": 3515,
      "ĠBella": 3516,
      "Ġboys": 3517,
      "ssroom": 3518,
      "Ġalive": 3519,
      "Ġalmo": 3520,
      "Ġalright": 3521,
      "Ġalready": 3522,
      "ĠLea": 3523,
      "Ġworking": 3524,
      "Ġfaucet": 3525,
      "Ġchat": 3526,
      "Ġchoose": 3527,
      "Ġchallenge": 3528,
      "rodu": 3529,
      "ĠWho": 3530,
      "ĠWhy": 3531,
      "ĠWilbur": 3532,
      "ÅĵMommy": 3533,
      "ÅĵThank": 3534,
      "ÅĵWhy": 3535,
      "ÅĵNow": 3536,
      "ÅĵOf": 3537,
      "Ġseek": 3538,
      "rant": 3539,
      "Ġwhatever": 3540,
      "Ġroll": 3541,
      "Ġrose": 3542,
      "asure": 3543,
      "Ġprot": 3544,
      "Ġtwig": 3545,
      "Ġintell": 3546,
      "Ġintrodu": 3547,
      "ĠFreddy": 3548,
      "Ġpoin": 3549,
      "Ġposit": 3550,
      "istent": 3551,
      "Ġadult": 3552,
      "umpet": 3553,
      "Ġswings": 3554,
      "ucked": 3555,
      "Ġanywhere": 3556,
      "Ġtrade": 3557,
      "Ġtrumpet": 3558,
      "Ġknows": 3559,
      "Ġcarry": 3560,
      "ctive": 3561,
      "ĠGinger": 3562,
      "Ġyours": 3563,
      "Ġadventurous": 3564,
      "Ġpicking": 3565,
      "Ġnowhere": 3566,
      "Ġamazement": 3567,
      "Ġburied": 3568,
      "Ġwarned": 3569,
      "Ġcomm": 3570,
      "Ġhandker": 3571,
      "ĠJohnson": 3572,
      "Ġteapot": 3573,
      "Ġteasing": 3574,
      "Ġended": 3575,
      "Ġending": 3576,
      "Ġfright": 3577,
      "Ġusual": 3578,
      "Ġremembers": 3579,
      "ĠPercy": 3580,
      "ĠCount": 3581,
      "Ġowner": 3582,
      "Ġharder": 3583,
      "Ġflight": 3584,
      "though": 3585,
      "Ġunk": 3586,
      "ffed": 3587,
      "Ġbehav": 3588,
      "Ġcolours": 3589,
      "Ġwarmth": 3590,
      "Ġkittens": 3591,
      "lier": 3592,
      "Ġzoom": 3593,
      "Ġclear": 3594,
      "Ġrealised": 3595,
      "Ġsweets": 3596,
      "Ġcreate": 3597,
      "Ġpassed": 3598,
      "Ġseems": 3599,
      "ĠRita": 3600,
      "ĠRalph": 3601,
      "Ġsquare": 3602,
      "Ġwooden": 3603,
      "Ġfollowing": 3604,
      "Ġpressed": 3605,
      "Ġclosely": 3606,
      "Ġpowers": 3607,
      "Ġuseful": 3608,
      "ĠTodd": 3609,
      "Ġvisited": 3610,
      "Ġblueberry": 3611,
      "Ġblueberries": 3612,
      "Ġhurts": 3613,
      "Ġdriving": 3614,
      "Ġbarked": 3615,
      "Ġnaughtiness": 3616,
      "Ġclassroom": 3617,
      "ĠwonÃ¢": 3618,
      "Ġvessel": 3619,
      "Ġknocked": 3620,
      "Ġchoice": 3621,
      "Ġexplaining": 3622,
      "Ġsubway": 3623,
      "Ġbroke": 3624,
      "Ġprove": 3625,
      "Ġprovide": 3626,
      "Ġearlier": 3627,
      "umbling": 3628,
      "Ġgranddad": 3629,
      "Ġcountry": 3630,
      "Ġraven": 3631,
      "Ġreturn": 3632,
      "Ġblocked": 3633,
      "Ġpretending": 3634,
      "Andy": 3635,
      "box": 3636,
      "Ġspoiled": 3637,
      "Ġattach": 3638,
      "Ġattention": 3639,
      "Ġcherries": 3640,
      "Ġmissed": 3641,
      "Ġbranches": 3642,
      "Ġfalling": 3643,
      "Ġphoto": 3644,
      "Ġwelcomed": 3645,
      "Ġshelves": 3646,
      "iggly": 3647,
      "Ġbreakfast": 3648,
      "Ġwandering": 3649,
      "Ġimpressed": 3650,
      "Ġcompetitive": 3651,
      "Ġpersistent": 3652,
      "Ġeagerly": 3653,
      "Ġsmelled": 3654,
      "Ġspinning": 3655,
      "Ġgems": 3656,
      "arian": 3657,
      "Ġsolve": 3658,
      "Ġsolved": 3659,
      "Ġfrowning": 3660,
      "ĠOK": 3661,
      "Ġbrick": 3662,
      "Ġreading": 3663,
      "Ġlogs": 3664,
      "Ġdiving": 3665,
      "Ġpoured": 3666,
      "Ġeasy": 3667,
      "Ġnumbers": 3668,
      "Ġjuice": 3669,
      "Ġbubbles": 3670,
      "Ġjogged": 3671,
      "Emily": 3672,
      "Ġwrap": 3673,
      "Ġobject": 3674,
      "Ġgifted": 3675,
      "Ġthumbs": 3676,
      "Ġurge": 3677,
      "Ġstirred": 3678,
      "Ġsteps": 3679,
      "Ġrefres": 3680,
      "Ġresponse": 3681,
      "Ġrecognize": 3682,
      "ensive": 3683,
      "Ġsticks": 3684,
      "Ġapproached": 3685,
      "Ġribbons": 3686,
      "Ġstruggle": 3687,
      "Ġstruggling": 3688,
      "Grandma": 3689,
      "Stop": 3690,
      "Ġbury": 3691,
      "Ġducks": 3692,
      "Ġmarried": 3693,
      "Ġsausage": 3694,
      "ÅĵItÃ¢": 3695,
      "Ġexperien": 3696,
      "Ġslipped": 3697,
      "Ġbeneath": 3698,
      "Ġbetween": 3699,
      "Ġdemand": 3700,
      "Ġprize": 3701,
      "Ġinsisting": 3702,
      "Ġreversing": 3703,
      "Ġexpensive": 3704,
      "Ġseashells": 3705,
      "Ġmemories": 3706,
      "Ġquestions": 3707,
      "Ġtwirled": 3708,
      "Ġordered": 3709,
      "Ġpermit": 3710,
      "Ġdisturbed": 3711,
      "Ġobserve": 3712,
      "Ġsneeze": 3713,
      "Ġignorant": 3714,
      "Quick": 3715,
      "Ġigloo": 3716,
      "Ġtaxi": 3717,
      "Ġthermometer": 3718,
      "Ġfirm": 3719,
      "Ġfilthy": 3720,
      "Ġfreedom": 3721,
      "Ġlecture": 3722,
      "Ġcourage": 3723,
      "Ġmistake": 3724,
      "Ġoasis": 3725,
      "Ġthirsty": 3726,
      "Ġemerged": 3727,
      "Ġnicer": 3728,
      "Ġalmost": 3729,
      "Ġintelligent": 3730,
      "Ġintroduced": 3731,
      "Ġhandkerchief": 3732,
      "ĠCounting": 3733,
      "Ġbehavi": 3734,
      "!'": 3735,
      "..": 3736,
      "?!": 3737,
      "Abigail": 3738,
      "By": 3739,
      "Bec": 3740,
      "Coo": 3741,
      "Claire": 3742,
      "Cindy": 3743,
      "Denise": 3744,
      "Good": 3745,
      "Is": 3746,
      "Joy": 3747,
      "James": 3748,
      "Kate": 3749,
      "Kari": 3750,
      "Later": 3751,
      "Mor": 3752,
      "Minnie": 3753,
      "Ouch": 3754,
      "Pixie": 3755,
      "Poor": 3756,
      "Rem": 3757,
      "Somet": 3758,
      "Sally": 3759,
      "Sandy": 3760,
      "Susie": 3761,
      "See": 3762,
      "Simon": 3763,
      "Ted": 3764,
      "Tilly": 3765,
      "Teddy": 3766,
      "Will": 3767,
      "While": 3768,
      "Yay": 3769,
      "away": 3770,
      "aven": 3771,
      "cc": 3772,
      "cu": 3773,
      "cted": 3774,
      "cal": 3775,
      "cast": 3776,
      "cane": 3777,
      "coura": 3778,
      "ccess": 3779,
      "ding": 3780,
      "ester": 3781,
      "ealed": 3782,
      "fa": 3783,
      "fid": 3784,
      "found": 3785,
      "face": 3786,
      "gum": 3787,
      "gers": 3788,
      "hi": 3789,
      "hind": 3790,
      "hip": 3791,
      "iar": 3792,
      "ived": 3793,
      "iking": 3794,
      "ivered": 3795,
      "ience": 3796,
      "jured": 3797,
      "ks": 3798,
      "len": 3799,
      "lid": 3800,
      "light": 3801,
      "lau": 3802,
      "mb": 3803,
      "mag": 3804,
      "nk": 3805,
      "nce": 3806,
      "night": 3807,
      "noon": 3808,
      "ol": 3809,
      "pite": 3810,
      "pool": 3811,
      "rn": 3812,
      "sse": 3813,
      "sday": 3814,
      "sured": 3815,
      "time": 3816,
      "ub": 3817,
      "uly": 3818,
      "uri": 3819,
      "ubb": 3820,
      "ulu": 3821,
      "val": 3822,
      "vail": 3823,
      "wl": 3824,
      "wn": 3825,
      "wo": 3826,
      "ws": 3827,
      "wer": 3828,
      "wor": 3829,
      "wise": 3830,
      "well": 3831,
      "walk": 3832,
      "xible": 3833,
      "yed": 3834,
      "Ġing": 3835,
      "ĠUntil": 3836,
      "ĠQuick": 3837,
      "Ġtar": 3838,
      "Ġtag": 3839,
      "Ġtest": 3840,
      "Ġtugged": 3841,
      "Ġtub": 3842,
      "Ġach": 3843,
      "Ġadded": 3844,
      "Ġavail": 3845,
      "Ġsen": 3846,
      "Ġson": 3847,
      "Ġsla": 3848,
      "Ġsimp": 3849,
      "Ġskeleton": 3850,
      "Ġwing": 3851,
      "Ġwild": 3852,
      "Ġwider": 3853,
      "Ġwiggly": 3854,
      "nddad": 3855,
      "edne": 3856,
      "ining": 3857,
      "inary": 3858,
      "inated": 3859,
      "Ġwave": 3860,
      "Ġwaving": 3861,
      "Ġbitt": 3862,
      "Ġbake": 3863,
      "Ġbase": 3864,
      "Ġbiking": 3865,
      "Ġtorn": 3866,
      "Ġhum": 3867,
      "Ġhone": 3868,
      "iting": 3869,
      "ital": 3870,
      "render": 3871,
      "rease": 3872,
      "reased": 3873,
      "ouch": 3874,
      "Ġfour": 3875,
      "ery": 3876,
      "Ġwash": 3877,
      "Ġlitt": 3878,
      "Ġlined": 3879,
      "Ġlugg": 3880,
      "Ġcoo": 3881,
      "Ġcur": 3882,
      "Ġcro": 3883,
      "Ġcries": 3884,
      "Ġcert": 3885,
      "Ġcouch": 3886,
      "Ġdar": 3887,
      "Ġdear": 3888,
      "Ġdive": 3889,
      "Ġdire": 3890,
      "Ġdigg": 3891,
      "Ġpur": 3892,
      "Ġpush": 3893,
      "Ġmea": 3894,
      "Ġmac": 3895,
      "Ġmask": 3896,
      "Ġmass": 3897,
      "Ġmaybe": 3898,
      "Ġocc": 3899,
      "Ġgle": 3900,
      "Ġgue": 3901,
      "arming": 3902,
      "llip": 3903,
      "ats": 3904,
      "atched": 3905,
      "oming": 3906,
      "omped": 3907,
      "iders": 3908,
      "isks": 3909,
      "Their": 3910,
      "nected": 3911,
      "Ġsank": 3912,
      "any": 3913,
      "Ġthick": 3914,
      "Ġthous": 3915,
      "Ġitches": 3916,
      "orn": 3917,
      "orable": 3918,
      "ĠSure": 3919,
      "ĠSee": 3920,
      "ĠSuzy": 3921,
      "ety": 3922,
      "Ġinter": 3923,
      "Ġinjured": 3924,
      "lden": 3925,
      "irit": 3926,
      "Ġbellow": 3927,
      "Ġshed": 3928,
      "Ġshell": 3929,
      "Ġshells": 3930,
      "Ġsofa": 3931,
      "ows": 3932,
      "ower": 3933,
      "ĠHere": 3934,
      "Ġstri": 3935,
      "Ġstairs": 3936,
      "Ġstomped": 3937,
      "Ġna": 3938,
      "Ġnames": 3939,
      "Ġrot": 3940,
      "Ġrust": 3941,
      "Ġrise": 3942,
      "Ġrac": 3943,
      "Ġrisks": 3944,
      "sts": 3945,
      "ution": 3946,
      "utching": 3947,
      "ooped": 3948,
      "rily": 3949,
      "ricane": 3950,
      "ĠĊĊ": 3951,
      "Ġupstairs": 3952,
      "Ġplate": 3953,
      "als": 3954,
      "alous": 3955,
      "ality": 3956,
      "iliar": 3957,
      "Ġweigh": 3958,
      "unic": 3959,
      "Ġsmart": 3960,
      "ĠyouÃ¢": 3961,
      "Ġrecept": 3962,
      "Ġreward": 3963,
      "Ġresist": 3964,
      "Ġreaction": 3965,
      "Ġonion": 3966,
      "Ġonward": 3967,
      "Ġonwards": 3968,
      "irlpool": 3969,
      "hero": 3970,
      "Ġwhirlpool": 3971,
      "Ġneare": 3972,
      "hter": 3973,
      "ses": 3974,
      "seek": 3975,
      "Ġshorts": 3976,
      "Ġshiver": 3977,
      "Ġexit": 3978,
      "Ġexam": 3979,
      "Ġspr": 3980,
      "Ġspea": 3981,
      "Ġspiders": 3982,
      "Ġspirit": 3983,
      "Ġlicked": 3984,
      "ills": 3985,
      "Ġweren": 3986,
      "Ġoutfit": 3987,
      "icing": 3988,
      "ictor": 3989,
      "ĠItÃ¢": 3990,
      "ĠTV": 3991,
      "ĠTruck": 3992,
      "ĠTwo": 3993,
      "ĠAre": 3994,
      "ĠAbigail": 3995,
      "Ġallowed": 3996,
      "Ġgolden": 3997,
      "Ġdolls": 3998,
      "Ġsew": 3999,
      "ĠBoth": 4000,
      "Ġfriendship": 4001,
      "Ġclucked": 4002,
      "Ġclutching": 4003,
      "Ġlocal": 4004,
      "Ġlollip": 4005,
      "Ġstaring": 4006,
      "Ġbacked": 4007,
      "ssment": 4008,
      "ags": 4009,
      "ages": 4010,
      "agreed": 4011,
      "gets": 4012,
      "ĠLook": 4013,
      "ĠLater": 4014,
      "ĠLola": 4015,
      "ĠLulu": 4016,
      "Ġworm": 4017,
      "Ġworth": 4018,
      "quake": 4019,
      "Ġfair": 4020,
      "Ġfact": 4021,
      "Ġfasc": 4022,
      "Ġnod": 4023,
      "Ġnoises": 4024,
      "Ġchase": 4025,
      "Ġchair": 4026,
      "Ġchubb": 4027,
      "Ġcharming": 4028,
      "play": 4029,
      "place": 4030,
      "plane": 4031,
      "plished": 4032,
      "?\",": 4033,
      "Ġdecl": 4034,
      "Ġdecis": 4035,
      "Ġdecide": 4036,
      "Ġvide": 4037,
      "Ġvib": 4038,
      "Ġvictor": 4039,
      "Ġgets": 4040,
      "Ġmeal": 4041,
      "Ġmeowed": 4042,
      "ĠWedne": 4043,
      "Ġsomebody": 4044,
      "ÅĵJack": 4045,
      "ÅĵMom": 4046,
      "ÅĵOh": 4047,
      "ÅĵDo": 4048,
      "ÅĵWow": 4049,
      "ÅĵLook": 4050,
      "ÅĵHi": 4051,
      "ÅĵMy": 4052,
      "ÅĵHey": 4053,
      "Åĵhi": 4054,
      "Ġcosy": 4055,
      "Ġfeels": 4056,
      "Ġthanking": 4057,
      "Ġscr": 4058,
      "Ġscaring": 4059,
      "Ġgotten": 4060,
      "antly": 4061,
      "ptain": 4062,
      "Ġrod": 4063,
      "Ġroared": 4064,
      "Ġrode": 4065,
      "ĠEveryday": 4066,
      "asion": 4067,
      "Ġdownstairs": 4068,
      "Ġnewfound": 4069,
      "Ġencoura": 4070,
      "Ġtwink": 4071,
      "Ġbrings": 4072,
      "Ġotherwise": 4073,
      "Ġsunlight": 4074,
      "Ġblouse": 4075,
      "Ġpopped": 4076,
      "Ġposse": 4077,
      "Ġskin": 4078,
      "Ġskills": 4079,
      "Ġthoughtful": 4080,
      "Ġhugs": 4081,
      "Ġhowever": 4082,
      "Ġfog": 4083,
      "isten": 4084,
      "Ġadorable": 4085,
      "Ġwaters": 4086,
      "Ġlaughter": 4087,
      "Ġhosp": 4088,
      "Ġholid": 4089,
      "Ġswam": 4090,
      "Ġswell": 4091,
      "bers": 4092,
      "ionate": 4093,
      "ionist": 4094,
      "Ġtruly": 4095,
      "bborn": 4096,
      "Ġquicker": 4097,
      "ives": 4098,
      "Ġwants": 4099,
      "ĠGood": 4100,
      "Ġleaving": 4101,
      "Ġpup": 4102,
      "Ġoper": 4103,
      "ishy": 4104,
      "Ġjumps": 4105,
      "Ġcomes": 4106,
      "Ġsurprises": 4107,
      "Ġsurprising": 4108,
      "Ġstolen": 4109,
      "Ġwonders": 4110,
      "Ġkindly": 4111,
      "Ġwarning": 4112,
      "Ġhandle": 4113,
      "Ġconfid": 4114,
      "Ġconnected": 4115,
      "Ġsmiles": 4116,
      "Ġteaching": 4117,
      "Ġfamous": 4118,
      "Ġfamiliar": 4119,
      "Ġdelay": 4120,
      "Ġstrangers": 4121,
      "ĠPlease": 4122,
      "ĠPinky": 4123,
      "Ġcheer": 4124,
      "ĠCaw": 4125,
      "ĠClarissa": 4126,
      "Ġflapped": 4127,
      "Ġflags": 4128,
      "ients": 4129,
      "ĠAsked": 4130,
      "Ġafternoon": 4131,
      "Ġacted": 4132,
      "Ġaccom": 4133,
      "Ġdiscu": 4134,
      "Ġdisagreed": 4135,
      "Ġdisplay": 4136,
      "Ġtowel": 4137,
      "Ġunite": 4138,
      "Ġunable": 4139,
      "Ġuncom": 4140,
      "Ġunlock": 4141,
      "Ġcuriously": 4142,
      "Ġbehaving": 4143,
      "Ġstrongest": 4144,
      "Ġreplace": 4145,
      "Ġprinted": 4146,
      "ĠletÃ¢": 4147,
      "Ġfaces": 4148,
      "Ġwarmly": 4149,
      "Ġpatience": 4150,
      "Ġbutterfli": 4151,
      "Ġrealize": 4152,
      "Ġsweetie": 4153,
      "Ġcreating": 4154,
      "Ġshouldn": 4155,
      "Ġpaid": 4156,
      "Ġorder": 4157,
      "Ġjoined": 4158,
      "Ġdifference": 4159,
      "Ġsecrets": 4160,
      "Ġapples": 4161,
      "Ġapplau": 4162,
      "Ġdrop": 4163,
      "ĠInstead": 4164,
      "Ġsquee": 4165,
      "Ġsquealed": 4166,
      "Ġsquishy": 4167,
      "ĠJimmyÃ¢": 4168,
      "Ġtreasure": 4169,
      "Ġbrighter": 4170,
      "izon": 4171,
      "Ġdeeper": 4172,
      "ĠSueÃ¢": 4173,
      "Ġbelt": 4174,
      "Ġrub": 4175,
      "Ġruined": 4176,
      "Ġfigured": 4177,
      "Ġgreet": 4178,
      "Ġvisiting": 4179,
      "ĠGranddad": 4180,
      "Ġharm": 4181,
      "Ġquietest": 4182,
      "Ġperfectly": 4183,
      "beh": 4184,
      "Ġfurther": 4185,
      "Ġfreeze": 4186,
      "Ġrested": 4187,
      "Ġsnuck": 4188,
      "Ġsnugg": 4189,
      "Ġfixing": 4190,
      "Ġraining": 4191,
      "Ġpeacefully": 4192,
      "Ġsetting": 4193,
      "Ġsettle": 4194,
      "Ġtricks": 4195,
      "Ġtells": 4196,
      "Ġsidewalk": 4197,
      "Ġgrown": 4198,
      "Thanks": 4199,
      "Ġairport": 4200,
      "Ġairplane": 4201,
      "Ġlights": 4202,
      "Ġknown": 4203,
      "Ġknives": 4204,
      "Ġghosts": 4205,
      "Ġsuccess": 4206,
      "Ġearly": 4207,
      "ĠAlways": 4208,
      "ĠAlthough": 4209,
      "liness": 4210,
      "spect": 4211,
      "Ġamong": 4212,
      "Ġhills": 4213,
      "Ġloneliness": 4214,
      "Ġgathering": 4215,
      "Ġsailing": 4216,
      "Ġraked": 4217,
      "Ġmeans": 4218,
      "Ġimagine": 4219,
      "Ġgentleman": 4220,
      "Ġhorn": 4221,
      "Ġhorizon": 4222,
      "Ġdreaming": 4223,
      "igns": 4224,
      "Ġattic": 4225,
      "Ġfooting": 4226,
      "Afterwards": 4227,
      "redients": 4228,
      "Ġmisbeh": 4229,
      "Ġmarkers": 4230,
      "Ġcoins": 4231,
      "Ġspeeding": 4232,
      "Ġfallen": 4233,
      "Ġcutting": 4234,
      "Ġdryer": 4235,
      "Ġgrowled": 4236,
      "Ġstupid": 4237,
      "Ġstuffed": 4238,
      "Ġstubborn": 4239,
      "ĠBefore": 4240,
      "Ġpresents": 4241,
      "Ġembarrassment": 4242,
      "Ġdesigns": 4243,
      "Ġstruck": 4244,
      "Ġengines": 4245,
      "Ġstreets": 4246,
      "brush": 4247,
      "Ġenter": 4248,
      "Ġhang": 4249,
      "Ġhanging": 4250,
      "Ġhurricane": 4251,
      "Ġhooks": 4252,
      "Ġpracticing": 4253,
      "Ġincred": 4254,
      "Ġsparkled": 4255,
      "Ġcompass": 4256,
      "Ġcompany": 4257,
      "Ġcoloured": 4258,
      "Ġdoctors": 4259,
      "Inside": 4260,
      "Ġheavier": 4261,
      "Ġglowing": 4262,
      "Ġsmells": 4263,
      "Ġkicking": 4264,
      "ĠRuby": 4265,
      "Ġfloating": 4266,
      "Ġactually": 4267,
      "Ġpetals": 4268,
      "Ġsolving": 4269,
      "Ġfrowned": 4270,
      "Ġunivers": 4271,
      "Ġsplashing": 4272,
      "Ġrainbows": 4273,
      "Ġtidying": 4274,
      "Ġtrail": 4275,
      "Ġserve": 4276,
      "Ġshrugged": 4277,
      "Ġvalue": 4278,
      "Ġarrows": 4279,
      "Ġhurrying": 4280,
      "Before": 4281,
      "Ġpedals": 4282,
      "angled": 4283,
      "Ġinfants": 4284,
      "Ġjokes": 4285,
      "Ġcollected": 4286,
      "Ġincluding": 4287,
      "Ġpolitely": 4288,
      "Charles": 4289,
      "Emmy": 4290,
      "Emma": 4291,
      "Ġawake": 4292,
      "Ġwipe": 4293,
      "Ġwagged": 4294,
      "Ġhope": 4295,
      "Ġhoped": 4296,
      "Ġhoping": 4297,
      "Ġpuddles": 4298,
      "Ġwealth": 4299,
      "Ġweightless": 4300,
      "Ġrespect": 4301,
      "Ġrespected": 4302,
      "Ġseparate": 4303,
      "ÅĵYouÃ¢": 4304,
      "Ġtwisty": 4305,
      "Ġpreparing": 4306,
      "Ġpaintbrush": 4307,
      "Ġneighbours": 4308,
      "Ġcelebration": 4309,
      "Ġearthquake": 4310,
      "Ġsurface": 4311,
      "Ġsurrender": 4312,
      "Ġbalance": 4313,
      "Ġsafety": 4314,
      "Ġstraight": 4315,
      "Ġsmoke": 4316,
      "Ġreceived": 4317,
      "Ġreveal": 4318,
      "Ġsprayed": 4319,
      "Ġcupboard": 4320,
      "Ġflutter": 4321,
      "Ġapproval": 4322,
      "Ġmuffins": 4323,
      "Grace": 4324,
      "Ġsongs": 4325,
      "Ġcrown": 4326,
      "Ġpillows": 4327,
      "Ġmixed": 4328,
      "Ġsandcast": 4329,
      "Ġsausages": 4330,
      "Ġitchy": 4331,
      "Ġinvited": 4332,
      "Ġinvol": 4333,
      "Ġnetwor": 4334,
      "Ġneatly": 4335,
      "Ġgraceful": 4336,
      "Ġgracefully": 4337,
      "Ġremained": 4338,
      "Ġcrystals": 4339,
      "Ġleader": 4340,
      "Ġmission": 4341,
      "Ġimprove": 4342,
      "Ġimproved": 4343,
      "Ġwindowsill": 4344,
      "Ġexperience": 4345,
      "Meow": 4346,
      "hhh": 4347,
      "Ġhesitant": 4348,
      "Ġhesitated": 4349,
      "Ġcaptain": 4350,
      "Ġwhistle": 4351,
      "Ġwhistling": 4352,
      "Ġlips": 4353,
      "Ġcovering": 4354,
      "Ġpebble": 4355,
      "Ġpebbles": 4356,
      "Ġunpacked": 4357,
      "Ġsuperhero": 4358,
      "Ġbubblegum": 4359,
      "Ġreflection": 4360,
      "Ġreflective": 4361,
      "Ġbalanced": 4362,
      "Ġbalancing": 4363,
      "Ġstrawberry": 4364,
      "Ġstrawberries": 4365,
      "Alice": 4366,
      "Help": 4367,
      "Ruby": 4368,
      "rupt": 4369,
      "Ġterrible": 4370,
      "Ġapart": 4371,
      "Ġblowing": 4372,
      "Ġflexible": 4373,
      "Ġcuddled": 4374,
      "Ġcookies": 4375,
      "Ġdrawer": 4376,
      "Ġdestination": 4377,
      "Ġmailbox": 4378,
      "Ġlibrarian": 4379,
      "Ġjealous": 4380,
      "Ġjunkyard": 4381,
      "ĠLeave": 4382,
      "Ġtwigs": 4383,
      "Ġpointing": 4384,
      "Ġpositive": 4385,
      "Ġadults": 4386,
      "Ġcommunic": 4387,
      "Ġfrightened": 4388,
      "Ġunkind": 4389,
      "Ġzoomed": 4390,
      "Ġobjects": 4391,
      "Ġrefreshed": 4392,
      "Ġexperienced": 4393,
      "Ġdemanded": 4394,
      "Ġfirmly": 4395,
      "Ġmistakes": 4396,
      "Ġbehaviour": 4397,
      "Because": 4398,
      "Moral": 4399,
      "Remember": 4400,
      "Sometimes": 4401,
      "esterday": 4402,
      "urious": 4403,
      "Ġingredients": 4404,
      "Ġtargets": 4405,
      "Ġachie": 4406,
      "Ġavailable": 4407,
      "Ġsense": 4408,
      "Ġslapped": 4409,
      "Ġsimple": 4410,
      "Ġbitter": 4411,
      "Ġhonest": 4412,
      "Ġluggage": 4413,
      "Ġcertain": 4414,
      "Ġdirection": 4415,
      "Ġdigging": 4416,
      "Ġoccasion": 4417,
      "Ġglee": 4418,
      "Ġguests": 4419,
      "Ġthousand": 4420,
      "Ġinterrupt": 4421,
      "Ġbellowed": 4422,
      "Ġreceptionist": 4423,
      "Ġnearer": 4424,
      "Ġlollipop": 4425,
      "Ġfascinated": 4426,
      "Ġchubby": 4427,
      "Ġvibrant": 4428,
      "Ġvictorious": 4429,
      "ĠWednesday": 4430,
      "Ġencouraging": 4431,
      "Ġpossess": 4432,
      "Ġhospital": 4433,
      "Ġholiday": 4434,
      "Ġaccomplished": 4435,
      "Ġdiscuss": 4436,
      "Ġuncomfortable": 4437,
      "Ġbutterflies": 4438,
      "Ġsnuggled": 4439,
      "Ġsuccessful": 4440,
      "Ġcompassionate": 4441,
      "Ġuniversity": 4442,
      "Ġsandcastles": 4443,
      "Ġnetwork": 4444,
      "Ġcommunicate": 4445
    },
    "merges": [
      [
        "h",
        "e"
      ],
      [
        "Ġ",
        "t"
      ],
      [
        "Ġ",
        "a"
      ],
      [
        "Ġ",
        "s"
      ],
      [
        "Ġ",
        "w"
      ],
      [
        "Ġt",
        "he"
      ],
      [
        "n",
        "d"
      ],
      [
        "e",
        "d"
      ],
      [
        "i",
        "n"
      ],
      [
        "Ġw",
        "a"
      ],
      [
        "Ġ",
        "b"
      ],
      [
        "Ġa",
        "nd"
      ],
      [
        "Ġt",
        "o"
      ],
      [
        "Ġ",
        "h"
      ],
      [
        "i",
        "t"
      ],
      [
        "r",
        "e"
      ],
      [
        "o",
        "u"
      ],
      [
        "Ġ",
        "f"
      ],
      [
        "e",
        "r"
      ],
      [
        "Ġwa",
        "s"
      ],
      [
        "Ġ",
        "he"
      ],
      [
        "Ġ",
        "l"
      ],
      [
        "Ġ",
        "c"
      ],
      [
        "Ġ",
        "d"
      ],
      [
        "in",
        "g"
      ],
      [
        "Ġ",
        "p"
      ],
      [
        "Ġ",
        "m"
      ],
      [
        "Ġ",
        "o"
      ],
      [
        "Ġ",
        "g"
      ],
      [
        "a",
        "r"
      ],
      [
        "l",
        "l"
      ],
      [
        "a",
        "t"
      ],
      [
        "o",
        "m"
      ],
      [
        "a",
        "y"
      ],
      [
        "e",
        "n"
      ],
      [
        "i",
        "d"
      ],
      [
        "i",
        "s"
      ],
      [
        "T",
        "he"
      ],
      [
        "n",
        "e"
      ],
      [
        "l",
        "e"
      ],
      [
        "Ġs",
        "a"
      ],
      [
        "a",
        "n"
      ],
      [
        "Ġh",
        "a"
      ],
      [
        "Ġt",
        "h"
      ],
      [
        "Ġ",
        "it"
      ],
      [
        "i",
        "m"
      ],
      [
        "o",
        "r"
      ],
      [
        "Ġ",
        "S"
      ],
      [
        "e",
        "t"
      ],
      [
        "v",
        "er"
      ],
      [
        "Ġ",
        "e"
      ],
      [
        "Ġ",
        "in"
      ],
      [
        "l",
        "d"
      ],
      [
        "i",
        "r"
      ],
      [
        "o",
        "n"
      ],
      [
        "Ġhe",
        "r"
      ],
      [
        "Ġ",
        "H"
      ],
      [
        "Ġb",
        "e"
      ],
      [
        "Ġs",
        "he"
      ],
      [
        "Ġs",
        "o"
      ],
      [
        "c",
        "k"
      ],
      [
        "o",
        "w"
      ],
      [
        "c",
        "e"
      ],
      [
        "Ġ",
        "u"
      ],
      [
        "Ġ",
        "The"
      ],
      [
        "ĠH",
        "e"
      ],
      [
        "Ġs",
        "t"
      ],
      [
        "Ġ",
        "n"
      ],
      [
        "o",
        "t"
      ],
      [
        "Ġ",
        "r"
      ],
      [
        "Ġo",
        "f"
      ],
      [
        "s",
        "t"
      ],
      [
        "ĠS",
        "he"
      ],
      [
        "Ġsa",
        "id"
      ],
      [
        "u",
        "t"
      ],
      [
        "i",
        "g"
      ],
      [
        "ver",
        "y"
      ],
      [
        "p",
        "p"
      ],
      [
        "l",
        "y"
      ],
      [
        "o",
        "o"
      ],
      [
        "Ġ",
        "\""
      ],
      [
        "k",
        "e"
      ],
      [
        "k",
        "ed"
      ],
      [
        "r",
        "i"
      ],
      [
        "v",
        "e"
      ],
      [
        "Ġ",
        "y"
      ],
      [
        "Ġth",
        "at"
      ],
      [
        "it",
        "t"
      ],
      [
        "Ġd",
        "ay"
      ],
      [
        "a",
        "m"
      ],
      [
        "Ġh",
        "is"
      ],
      [
        "Ġ",
        "Ċ"
      ],
      [
        "Ġu",
        "p"
      ],
      [
        "a",
        "d"
      ],
      [
        "t",
        "ed"
      ],
      [
        "Ġ",
        "I"
      ],
      [
        "Ġha",
        "d"
      ],
      [
        "ou",
        "ld"
      ],
      [
        "it",
        "h"
      ],
      [
        "en",
        "t"
      ],
      [
        "itt",
        "le"
      ],
      [
        "Ġw",
        "ith"
      ],
      [
        "e",
        "l"
      ],
      [
        "ou",
        "nd"
      ],
      [
        "Ġl",
        "ittle"
      ],
      [
        "Ġp",
        "l"
      ],
      [
        "a",
        "l"
      ],
      [
        "i",
        "l"
      ],
      [
        "a",
        "ck"
      ],
      [
        "Ġw",
        "e"
      ],
      [
        "im",
        "e"
      ],
      [
        "ou",
        "t"
      ],
      [
        "u",
        "n"
      ],
      [
        "Ġs",
        "m"
      ],
      [
        "Ġt",
        "ime"
      ],
      [
        "Ġy",
        "ou"
      ],
      [
        "Ġ",
        "J"
      ],
      [
        "Ġ",
        "re"
      ],
      [
        "Ġthe",
        "re"
      ],
      [
        "c",
        "h"
      ],
      [
        "Ġo",
        "n"
      ],
      [
        "ir",
        "l"
      ],
      [
        "he",
        "r"
      ],
      [
        "Ġf",
        "or"
      ],
      [
        "Ġg",
        "irl"
      ],
      [
        "Ġthe",
        "y"
      ],
      [
        "a",
        "ll"
      ],
      [
        "Ġ",
        "very"
      ],
      [
        "Ġw",
        "h"
      ],
      [
        "Ġ",
        "ne"
      ],
      [
        "om",
        "e"
      ],
      [
        "h",
        "t"
      ],
      [
        "e",
        "c"
      ],
      [
        "e",
        "nd"
      ],
      [
        "Ã",
        "¢"
      ],
      [
        "â",
        "Ĥ"
      ],
      [
        "âĤ",
        "¬"
      ],
      [
        "Ġha",
        "pp"
      ],
      [
        "s",
        "e"
      ],
      [
        "Ġpl",
        "ay"
      ],
      [
        "'",
        "s"
      ],
      [
        "Ġs",
        "h"
      ],
      [
        "O",
        "n"
      ],
      [
        "Ġa",
        "s"
      ],
      [
        "u",
        "g"
      ],
      [
        "e",
        "s"
      ],
      [
        "Ġe",
        "x"
      ],
      [
        "Ġa",
        "n"
      ],
      [
        "On",
        "ce"
      ],
      [
        "Ġ",
        "k"
      ],
      [
        "Ġs",
        "p"
      ],
      [
        "t",
        "er"
      ],
      [
        "Ġf",
        "ri"
      ],
      [
        "Ġfri",
        "end"
      ],
      [
        "o",
        "re"
      ],
      [
        "Ġwa",
        "n"
      ],
      [
        "Ġl",
        "oo"
      ],
      [
        "Ġb",
        "ut"
      ],
      [
        "m",
        "y"
      ],
      [
        "Ġb",
        "ig"
      ],
      [
        "u",
        "m"
      ],
      [
        "v",
        "ed"
      ],
      [
        "Ġl",
        "i"
      ],
      [
        "Ġb",
        "o"
      ],
      [
        "i",
        "ll"
      ],
      [
        "f",
        "u"
      ],
      [
        "r",
        "ound"
      ],
      [
        "id",
        "e"
      ],
      [
        "Ġwe",
        "re"
      ],
      [
        "Ġhapp",
        "y"
      ],
      [
        "O",
        "ne"
      ],
      [
        "Ġsa",
        "w"
      ],
      [
        "Ġ",
        "out"
      ],
      [
        "r",
        "a"
      ],
      [
        "ar",
        "d"
      ],
      [
        "h",
        "ing"
      ],
      [
        "w",
        "ay"
      ],
      [
        "o",
        "ne"
      ],
      [
        "Ġc",
        "ould"
      ],
      [
        "'",
        "t"
      ],
      [
        "Ġup",
        "on"
      ],
      [
        "i",
        "c"
      ],
      [
        "Ġ",
        "j"
      ],
      [
        "Ġh",
        "im"
      ],
      [
        "a",
        "ke"
      ],
      [
        "he",
        "n"
      ],
      [
        "ĠI",
        "t"
      ],
      [
        "Ġ",
        "M"
      ],
      [
        "Ġ",
        "T"
      ],
      [
        "il",
        "ed"
      ],
      [
        "Ġ",
        "A"
      ],
      [
        "Ġa",
        "ll"
      ],
      [
        "Ġwan",
        "ted"
      ],
      [
        "i",
        "nd"
      ],
      [
        "u",
        "r"
      ],
      [
        "a",
        "in"
      ],
      [
        "Ġm",
        "om"
      ],
      [
        "Ġg",
        "o"
      ],
      [
        "Ġsm",
        "iled"
      ],
      [
        "fu",
        "l"
      ],
      [
        "Ġto",
        "o"
      ],
      [
        "ĠThe",
        "y"
      ],
      [
        "!",
        "\""
      ],
      [
        "Ġw",
        "ent"
      ],
      [
        "Ġa",
        "t"
      ],
      [
        "Ġd",
        "o"
      ],
      [
        "he",
        "d"
      ],
      [
        "Ġs",
        "e"
      ],
      [
        ".",
        "\""
      ],
      [
        "r",
        "y"
      ],
      [
        "Ġa",
        "round"
      ],
      [
        "Ġ",
        "B"
      ],
      [
        "r",
        "om"
      ],
      [
        "Ġfriend",
        "s"
      ],
      [
        "a",
        "re"
      ],
      [
        "Ġhe",
        "l"
      ],
      [
        "om",
        "et"
      ],
      [
        "d",
        "d"
      ],
      [
        "Ġw",
        "ould"
      ],
      [
        "Ġex",
        "c"
      ],
      [
        "Ġ",
        "E"
      ],
      [
        "Ġbo",
        "y"
      ],
      [
        "Ġexc",
        "it"
      ],
      [
        "Ġs",
        "omet"
      ],
      [
        "ig",
        "ht"
      ],
      [
        "ou",
        "g"
      ],
      [
        "Ġc",
        "l"
      ],
      [
        "Ġf",
        "e"
      ],
      [
        "Ġl",
        "o"
      ],
      [
        "am",
        "e"
      ],
      [
        "k",
        "ing"
      ],
      [
        "Ġst",
        "ar"
      ],
      [
        "Ġsomet",
        "hing"
      ],
      [
        "Ġloo",
        "ked"
      ],
      [
        "u",
        "re"
      ],
      [
        "Ġhel",
        "p"
      ],
      [
        "Ġb",
        "ack"
      ],
      [
        "Ġn",
        "ot"
      ],
      [
        "s",
        "ide"
      ],
      [
        "s",
        "s"
      ],
      [
        "a",
        "g"
      ],
      [
        "Ġa",
        "l"
      ],
      [
        "e",
        "ar"
      ],
      [
        "i",
        "ck"
      ],
      [
        "ar",
        "k"
      ],
      [
        "oo",
        "d"
      ],
      [
        "g",
        "et"
      ],
      [
        "Ġ",
        "L"
      ],
      [
        "Ġas",
        "ked"
      ],
      [
        "n",
        "t"
      ],
      [
        "Ġr",
        "an"
      ],
      [
        "Ġexcit",
        "ed"
      ],
      [
        "re",
        "e"
      ],
      [
        "Ġstar",
        "ted"
      ],
      [
        "Ġw",
        "or"
      ],
      [
        "on",
        "g"
      ],
      [
        "Ġa",
        "g"
      ],
      [
        "i",
        "e"
      ],
      [
        "q",
        "u"
      ],
      [
        "Ġf",
        "a"
      ],
      [
        "Ġn",
        "o"
      ],
      [
        "el",
        "t"
      ],
      [
        "Ġthe",
        "n"
      ],
      [
        "Ġc",
        "an"
      ],
      [
        "Ġf",
        "un"
      ],
      [
        "Ġf",
        "elt"
      ],
      [
        "Ġc",
        "h"
      ],
      [
        "e",
        "a"
      ],
      [
        "e",
        "p"
      ],
      [
        "r",
        "o"
      ],
      [
        "p",
        "l"
      ],
      [
        "Ġa",
        "way"
      ],
      [
        "ll",
        "y"
      ],
      [
        "get",
        "her"
      ],
      [
        "?",
        "\""
      ],
      [
        "i",
        "ly"
      ],
      [
        "Ġh",
        "ome"
      ],
      [
        "pp",
        "ed"
      ],
      [
        "Ġw",
        "hen"
      ],
      [
        "ad",
        "e"
      ],
      [
        "a",
        "b"
      ],
      [
        "Ġm",
        "u"
      ],
      [
        "Ġe",
        "very"
      ],
      [
        "Ġwa",
        "l"
      ],
      [
        "a",
        "ug"
      ],
      [
        "Ġd",
        "ec"
      ],
      [
        "Ġ",
        "v"
      ],
      [
        "Ġg",
        "et"
      ],
      [
        "am",
        "ed"
      ],
      [
        "u",
        "dd"
      ],
      [
        "Ġ",
        "One"
      ],
      [
        "Ġthe",
        "m"
      ],
      [
        "Ġag",
        "ain"
      ],
      [
        "Ġa",
        "b"
      ],
      [
        "ou",
        "s"
      ],
      [
        "Ġm",
        "e"
      ],
      [
        "i",
        "ce"
      ],
      [
        "Ġha",
        "ve"
      ],
      [
        "h",
        "at"
      ],
      [
        "Ġf",
        "rom"
      ],
      [
        "ec",
        "i"
      ],
      [
        "Ġf",
        "ound"
      ],
      [
        "id",
        "ed"
      ],
      [
        "Ġwh",
        "o"
      ],
      [
        "Ġto",
        "gether"
      ],
      [
        "Ġm",
        "an"
      ],
      [
        "ow",
        "n"
      ],
      [
        "ĠJ",
        "ack"
      ],
      [
        "Ġlo",
        "ved"
      ],
      [
        "Ġdec",
        "ided"
      ],
      [
        "o",
        "p"
      ],
      [
        "Ġ",
        "W"
      ],
      [
        "Ġb",
        "ir"
      ],
      [
        "Ġsp",
        "eci"
      ],
      [
        "Ġspeci",
        "al"
      ],
      [
        "Ġn",
        "amed"
      ],
      [
        "udd",
        "en"
      ],
      [
        "Ġplay",
        "ing"
      ],
      [
        "Ġli",
        "ke"
      ],
      [
        "Ġs",
        "ome"
      ],
      [
        "Å",
        "ĵ"
      ],
      [
        "Ġc",
        "o"
      ],
      [
        "Ġfe",
        "el"
      ],
      [
        "udden",
        "ly"
      ],
      [
        "Ġ",
        "Ã¢"
      ],
      [
        "Ġm",
        "ade"
      ],
      [
        "Ġse",
        "e"
      ],
      [
        "Ġo",
        "ld"
      ],
      [
        "Ġthe",
        "ir"
      ],
      [
        "Ġp",
        "ark"
      ],
      [
        "Ġbir",
        "d"
      ],
      [
        "r",
        "an"
      ],
      [
        "Ġth",
        "an"
      ],
      [
        "i",
        "f"
      ],
      [
        "Ġd",
        "id"
      ],
      [
        "Ġs",
        "c"
      ],
      [
        "all",
        "y"
      ],
      [
        "ĠT",
        "im"
      ],
      [
        "way",
        "s"
      ],
      [
        "oug",
        "ht"
      ],
      [
        "Ġg",
        "ot"
      ],
      [
        "Ġ",
        "D"
      ],
      [
        "an",
        "t"
      ],
      [
        "âĤ¬",
        "â"
      ],
      [
        "Ġal",
        "ways"
      ],
      [
        "Ġ",
        "ke"
      ],
      [
        "Ġm",
        "ake"
      ],
      [
        "Ġth",
        "ing"
      ],
      [
        "p",
        "t"
      ],
      [
        "Ġ",
        "qu"
      ],
      [
        "Ġc",
        "are"
      ],
      [
        "Ġwh",
        "at"
      ],
      [
        "u",
        "st"
      ],
      [
        "ĠJ",
        "o"
      ],
      [
        "Ġr",
        "o"
      ],
      [
        "ĠE",
        "very"
      ],
      [
        "a",
        "s"
      ],
      [
        "i",
        "le"
      ],
      [
        "u",
        "s"
      ],
      [
        "ou",
        "d"
      ],
      [
        "Ġp",
        "r"
      ],
      [
        "Ġne",
        "ver"
      ],
      [
        "Ġ",
        "is"
      ],
      [
        "ou",
        "se"
      ],
      [
        "Ġo",
        "ne"
      ],
      [
        "Ġd",
        "own"
      ],
      [
        "Ġab",
        "out"
      ],
      [
        "ar",
        "ed"
      ],
      [
        "l",
        "ow"
      ],
      [
        "Ġne",
        "w"
      ],
      [
        "Ġex",
        "pl"
      ],
      [
        "Ġ",
        "en"
      ],
      [
        "Ġt",
        "ake"
      ],
      [
        "nd",
        "er"
      ],
      [
        "t",
        "her"
      ],
      [
        "Ħ",
        "¢"
      ],
      [
        "Ġt",
        "w"
      ],
      [
        "Ġcl",
        "o"
      ],
      [
        "âĤ¬â",
        "Ħ¢"
      ],
      [
        "Ġb",
        "r"
      ],
      [
        "Ġl",
        "ot"
      ],
      [
        "Ġp",
        "ut"
      ],
      [
        "Ġo",
        "ther"
      ],
      [
        "Ġg",
        "ra"
      ],
      [
        "Ġsa",
        "d"
      ],
      [
        "m",
        "a"
      ],
      [
        "Ġs",
        "un"
      ],
      [
        "Ġb",
        "l"
      ],
      [
        "Ġin",
        "t"
      ],
      [
        "n",
        "y"
      ],
      [
        "Ġ",
        "F"
      ],
      [
        "Ġp",
        "o"
      ],
      [
        "Ġbe",
        "c"
      ],
      [
        "c",
        "hed"
      ],
      [
        "ĠB",
        "ut"
      ],
      [
        "g",
        "e"
      ],
      [
        "Ġs",
        "k"
      ],
      [
        "is",
        "e"
      ],
      [
        "Ġth",
        "ought"
      ],
      [
        "re",
        "at"
      ],
      [
        "h",
        "n"
      ],
      [
        "Ġh",
        "ug"
      ],
      [
        "Ġm",
        "o"
      ],
      [
        "Ġk",
        "ne"
      ],
      [
        "Ġout",
        "side"
      ],
      [
        "f",
        "ter"
      ],
      [
        "Ġh",
        "ow"
      ],
      [
        "c",
        "y"
      ],
      [
        "at",
        "e"
      ],
      [
        "a",
        "nd"
      ],
      [
        "a",
        "ve"
      ],
      [
        "Ġf",
        "o"
      ],
      [
        "Ġg",
        "ood"
      ],
      [
        "is",
        "t"
      ],
      [
        "Ġcould",
        "n"
      ],
      [
        "it",
        "e"
      ],
      [
        "ou",
        "r"
      ],
      [
        "v",
        "ent"
      ],
      [
        "Ġa",
        "d"
      ],
      [
        "ri",
        "ed"
      ],
      [
        "Ġmu",
        "ch"
      ],
      [
        "d",
        "y"
      ],
      [
        "e",
        "ll"
      ],
      [
        "Ġm",
        "ore"
      ],
      [
        "Ġkne",
        "w"
      ],
      [
        "e",
        "m"
      ],
      [
        "n",
        "ow"
      ],
      [
        "v",
        "en"
      ],
      [
        "Ġt",
        "ree"
      ],
      [
        "Ġth",
        "is"
      ],
      [
        "Ġsm",
        "all"
      ],
      [
        "Ġc",
        "all"
      ],
      [
        "Ġint",
        "o"
      ],
      [
        "Ġwa",
        "ter"
      ],
      [
        "re",
        "t"
      ],
      [
        "Ġl",
        "aug"
      ],
      [
        "Ġc",
        "ame"
      ],
      [
        "Ġg",
        "ard"
      ],
      [
        "Ġof",
        "f"
      ],
      [
        "Ġsc",
        "ared"
      ],
      [
        "Ġgard",
        "en"
      ],
      [
        "o",
        "lly"
      ],
      [
        "Ġbe",
        "a"
      ],
      [
        "Ġtoo",
        "k"
      ],
      [
        "Ġthing",
        "s"
      ],
      [
        "f",
        "e"
      ],
      [
        "Ġf",
        "ind"
      ],
      [
        "en",
        "ed"
      ],
      [
        "um",
        "my"
      ],
      [
        "a",
        "ce"
      ],
      [
        "Ġh",
        "o"
      ],
      [
        "Ġtw",
        "o"
      ],
      [
        "v",
        "ing"
      ],
      [
        "Ġwa",
        "y"
      ],
      [
        "Ġd",
        "ad"
      ],
      [
        "um",
        "p"
      ],
      [
        "o",
        "y"
      ],
      [
        "Ġs",
        "w"
      ],
      [
        "om",
        "my"
      ],
      [
        "b",
        "er"
      ],
      [
        "Ġloo",
        "k"
      ],
      [
        "Ġthan",
        "ked"
      ],
      [
        "a",
        "st"
      ],
      [
        "Ġm",
        "y"
      ],
      [
        "Ġcall",
        "ed"
      ],
      [
        "Ġhe",
        "ard"
      ],
      [
        "Ġsk",
        "y"
      ],
      [
        "n",
        "ing"
      ],
      [
        "u",
        "ck"
      ],
      [
        "Ġso",
        "on"
      ],
      [
        "el",
        "f"
      ],
      [
        "Ġke",
        "pt"
      ],
      [
        "a",
        "ne"
      ],
      [
        "g",
        "ed"
      ],
      [
        "Ġwa",
        "t"
      ],
      [
        "Ġan",
        "y"
      ],
      [
        "i",
        "on"
      ],
      [
        "u",
        "e"
      ],
      [
        "u",
        "cy"
      ],
      [
        "Ġl",
        "ear"
      ],
      [
        "Ġst",
        "ay"
      ],
      [
        "oug",
        "h"
      ],
      [
        "ic",
        "ed"
      ],
      [
        "Ġclo",
        "s"
      ],
      [
        "Ġto",
        "y"
      ],
      [
        "Ġo",
        "ver"
      ],
      [
        "Y",
        "ou"
      ],
      [
        "n",
        "ed"
      ],
      [
        "Ġw",
        "o"
      ],
      [
        "Ġt",
        "r"
      ],
      [
        "Ġl",
        "ong"
      ],
      [
        "ĠS",
        "o"
      ],
      [
        "ur",
        "p"
      ],
      [
        "Ġpr",
        "oud"
      ],
      [
        ",",
        "\""
      ],
      [
        "b",
        "b"
      ],
      [
        "er",
        "s"
      ],
      [
        "Ġin",
        "side"
      ],
      [
        "Ġnot",
        "iced"
      ],
      [
        "Ġfa",
        "st"
      ],
      [
        "i",
        "ld"
      ],
      [
        "Ġ",
        "if"
      ],
      [
        "Ġh",
        "ouse"
      ],
      [
        "or",
        "t"
      ],
      [
        "nt",
        "il"
      ],
      [
        "Ġfeel",
        "ing"
      ],
      [
        "Ġdid",
        "n"
      ],
      [
        "Ġbea",
        "ut"
      ],
      [
        "Ġre",
        "m"
      ],
      [
        "Ġqu",
        "ick"
      ],
      [
        "Ġlot",
        "s"
      ],
      [
        "S",
        "o"
      ],
      [
        "a",
        "p"
      ],
      [
        "i",
        "ve"
      ],
      [
        "s",
        "elf"
      ],
      [
        "Ġg",
        "ave"
      ],
      [
        "im",
        "al"
      ],
      [
        "Ġan",
        "imal"
      ],
      [
        "Ġk",
        "now"
      ],
      [
        "W",
        "hen"
      ],
      [
        "a",
        "u"
      ],
      [
        "Ġw",
        "ill"
      ],
      [
        "Ġc",
        "ar"
      ],
      [
        "Ġe",
        "ven"
      ],
      [
        "Ġu",
        "ntil"
      ],
      [
        "ad",
        "y"
      ],
      [
        "Ġwan",
        "t"
      ],
      [
        "c",
        "t"
      ],
      [
        "f",
        "ore"
      ],
      [
        "Ġ",
        "G"
      ],
      [
        "in",
        "k"
      ],
      [
        "Ġl",
        "ea"
      ],
      [
        "Ġp",
        "u"
      ],
      [
        "ot",
        "her"
      ],
      [
        "Ġr",
        "un"
      ],
      [
        "Ġyou",
        "r"
      ],
      [
        "es",
        "s"
      ],
      [
        "ab",
        "le"
      ],
      [
        "i",
        "ful"
      ],
      [
        "Ġc",
        "at"
      ],
      [
        "Ġo",
        "p"
      ],
      [
        "Ġj",
        "ust"
      ],
      [
        "Ġwal",
        "king"
      ],
      [
        "Ġbeaut",
        "iful"
      ],
      [
        "a",
        "ch"
      ],
      [
        "Ġto",
        "ld"
      ],
      [
        "I",
        "t"
      ],
      [
        "he",
        "re"
      ],
      [
        "Ġt",
        "ried"
      ],
      [
        "Ġb",
        "ot"
      ],
      [
        "Ġm",
        "ag"
      ],
      [
        "is",
        "h"
      ],
      [
        "Ġbe",
        "st"
      ],
      [
        "Ġsh",
        "ow"
      ],
      [
        "Ġli",
        "ved"
      ],
      [
        "Ġj",
        "ump"
      ],
      [
        "Ġad",
        "vent"
      ],
      [
        "a",
        "h"
      ],
      [
        "Ġs",
        "urp"
      ],
      [
        "Ġc",
        "ome"
      ],
      [
        "Ġp",
        "ick"
      ],
      [
        "Ġg",
        "round"
      ],
      [
        "Ġbe",
        "fore"
      ],
      [
        "ĠThe",
        "n"
      ],
      [
        "Ġli",
        "ked"
      ],
      [
        "Ġexpl",
        "ore"
      ],
      [
        "Ġquick",
        "ly"
      ],
      [
        "Ġsurp",
        "r"
      ],
      [
        "Ġ",
        "im"
      ],
      [
        "ar",
        "ah"
      ],
      [
        "aug",
        "ht"
      ],
      [
        "Ġlaug",
        "hed"
      ],
      [
        "z",
        "ed"
      ],
      [
        "Ġb",
        "y"
      ],
      [
        "Ġn",
        "ow"
      ],
      [
        "Ġne",
        "ed"
      ],
      [
        "ĠA",
        "nd"
      ],
      [
        "Ġadvent",
        "ure"
      ],
      [
        "le",
        "w"
      ],
      [
        "Ġbe",
        "ar"
      ],
      [
        "'",
        "m"
      ],
      [
        "b",
        "y"
      ],
      [
        "g",
        "er"
      ],
      [
        "o",
        "b"
      ],
      [
        "Ġa",
        "ma"
      ],
      [
        "Ġc",
        "u"
      ],
      [
        "Ġp",
        "e"
      ],
      [
        "Ġm",
        "um"
      ],
      [
        "Ġst",
        "o"
      ],
      [
        "Ġevery",
        "one"
      ],
      [
        "ĠJo",
        "e"
      ],
      [
        "Ġro",
        "om"
      ],
      [
        "Ġwo",
        "nder"
      ],
      [
        "T",
        "hat"
      ],
      [
        "i",
        "ous"
      ],
      [
        "et",
        "ter"
      ],
      [
        "Ġk",
        "ind"
      ],
      [
        "Ġmag",
        "ic"
      ],
      [
        "g",
        "an"
      ],
      [
        "r",
        "ong"
      ],
      [
        "Ġb",
        "u"
      ],
      [
        "ĠS",
        "uddenly"
      ],
      [
        "au",
        "se"
      ],
      [
        "j",
        "oy"
      ],
      [
        "t",
        "ing"
      ],
      [
        "Ġwa",
        "r"
      ],
      [
        "Ġf",
        "in"
      ],
      [
        "Ġc",
        "om"
      ],
      [
        "Ġha",
        "nd"
      ],
      [
        "Ġy",
        "ear"
      ],
      [
        "ĠJo",
        "hn"
      ],
      [
        "Ġclos",
        "er"
      ],
      [
        "J",
        "o"
      ],
      [
        "W",
        "hat"
      ],
      [
        "Ġt",
        "ry"
      ],
      [
        "Ġa",
        "r"
      ],
      [
        "Ġc",
        "on"
      ],
      [
        "Ġd",
        "on"
      ],
      [
        "Ġit",
        "s"
      ],
      [
        "ve",
        "s"
      ],
      [
        "Ġsm",
        "ile"
      ],
      [
        "Ġbec",
        "ause"
      ],
      [
        "L",
        "et"
      ],
      [
        "S",
        "uddenly"
      ],
      [
        "a",
        "x"
      ],
      [
        "Ġt",
        "ea"
      ],
      [
        "Ġf",
        "am"
      ],
      [
        "Ġf",
        "low"
      ],
      [
        "Ġf",
        "lew"
      ],
      [
        "Ġd",
        "el"
      ],
      [
        "Ġth",
        "ree"
      ],
      [
        "ĠS",
        "am"
      ],
      [
        "Ġe",
        "y"
      ],
      [
        "Ġe",
        "nd"
      ],
      [
        "oo",
        "k"
      ],
      [
        "Ġbo",
        "at"
      ],
      [
        "Ġcare",
        "ful"
      ],
      [
        "Ġwat",
        "ched"
      ],
      [
        "l",
        "ed"
      ],
      [
        "t",
        "hing"
      ],
      [
        "Ġb",
        "ug"
      ],
      [
        "Ġb",
        "etter"
      ],
      [
        "Ġf",
        "r"
      ],
      [
        "ar",
        "t"
      ],
      [
        "im",
        "my"
      ],
      [
        "Ġe",
        "ver"
      ],
      [
        "Ġu",
        "s"
      ],
      [
        "em",
        "ber"
      ],
      [
        "J",
        "ack"
      ],
      [
        "b",
        "it"
      ],
      [
        "l",
        "ie"
      ],
      [
        "Ġa",
        "re"
      ],
      [
        "is",
        "y"
      ],
      [
        "ĠS",
        "arah"
      ],
      [
        "ĠH",
        "er"
      ],
      [
        "Ġpl",
        "ace"
      ],
      [
        "Ġse",
        "en"
      ],
      [
        "Ġch",
        "ild"
      ],
      [
        "Ġv",
        "o"
      ],
      [
        "Ġen",
        "joy"
      ],
      [
        "Ġhug",
        "ged"
      ],
      [
        "a",
        "isy"
      ],
      [
        "ar",
        "y"
      ],
      [
        "is",
        "ed"
      ],
      [
        "Ġe",
        "ach"
      ],
      [
        "Ġst",
        "ran"
      ],
      [
        "Ġr",
        "ab"
      ],
      [
        "ĠM",
        "olly"
      ],
      [
        "Ġrem",
        "ember"
      ],
      [
        "Ġanimal",
        "s"
      ],
      [
        "Ġrab",
        "bit"
      ],
      [
        "a",
        "se"
      ],
      [
        "Ġ",
        "P"
      ],
      [
        "in",
        "e"
      ],
      [
        "Ġwa",
        "it"
      ],
      [
        "Ġf",
        "ore"
      ],
      [
        "Ġst",
        "ill"
      ],
      [
        "pp",
        "y"
      ],
      [
        "Ġwal",
        "ked"
      ],
      [
        "Ġsto",
        "pped"
      ],
      [
        "Ġfam",
        "ily"
      ],
      [
        "B",
        "ut"
      ],
      [
        "Ġc",
        "he"
      ],
      [
        "ig",
        "h"
      ],
      [
        "ag",
        "e"
      ],
      [
        "Ġpu",
        "ppy"
      ],
      [
        "Ġey",
        "es"
      ],
      [
        "e",
        "ep"
      ],
      [
        "x",
        "t"
      ],
      [
        "Ġ",
        "C"
      ],
      [
        "Ġo",
        "w"
      ],
      [
        "Ġg",
        "reat"
      ],
      [
        "Ġbe",
        "gan"
      ],
      [
        "Ġplay",
        "ed"
      ],
      [
        "ĠL",
        "ucy"
      ],
      [
        "op",
        "le"
      ],
      [
        "Ġbot",
        "h"
      ],
      [
        "Ġs",
        "ure"
      ],
      [
        "Ġh",
        "ard"
      ],
      [
        "Ġf",
        "l"
      ],
      [
        "Ġd",
        "an"
      ],
      [
        "an",
        "k"
      ],
      [
        "ĠJ",
        "ane"
      ],
      [
        "Ġloo",
        "king"
      ],
      [
        "ur",
        "t"
      ],
      [
        "ĠL",
        "ily"
      ],
      [
        "Ġwor",
        "ld"
      ],
      [
        "by",
        "e"
      ],
      [
        "Ġpe",
        "ople"
      ],
      [
        "H",
        "e"
      ],
      [
        "i",
        "ent"
      ],
      [
        "Ġb",
        "ed"
      ],
      [
        "Ġl",
        "ist"
      ],
      [
        "ĠH",
        "is"
      ],
      [
        "Ġbe",
        "en"
      ],
      [
        "oo",
        "l"
      ],
      [
        "ĠA",
        "s"
      ],
      [
        "Ġgo",
        "ing"
      ],
      [
        "bb",
        "ed"
      ],
      [
        "Ġop",
        "ened"
      ],
      [
        "Ġcu",
        "ri"
      ],
      [
        "Ġvo",
        "ice"
      ],
      [
        "Y",
        "es"
      ],
      [
        "r",
        "ow"
      ],
      [
        "t",
        "h"
      ],
      [
        "Ġb",
        "ra"
      ],
      [
        "re",
        "am"
      ],
      [
        "Ġwh",
        "ile"
      ],
      [
        "fu",
        "lly"
      ],
      [
        "ĠEvery",
        "one"
      ],
      [
        "Ġgood",
        "bye"
      ],
      [
        "Jo",
        "hn"
      ],
      [
        "i",
        "a"
      ],
      [
        "i",
        "p"
      ],
      [
        "i",
        "ed"
      ],
      [
        "Ġ",
        "-"
      ],
      [
        "Ġa",
        "fter"
      ],
      [
        "Ġp",
        "ret"
      ],
      [
        "Ġst",
        "or"
      ],
      [
        "d",
        "ay"
      ],
      [
        "Ġa",
        "c"
      ],
      [
        "Ġd",
        "is"
      ],
      [
        "ir",
        "ed"
      ],
      [
        "Ġre",
        "ady"
      ],
      [
        "dd",
        "ed"
      ],
      [
        "ĠD",
        "ad"
      ],
      [
        "Ġjump",
        "ed"
      ],
      [
        "N",
        "o"
      ],
      [
        "a",
        "king"
      ],
      [
        "u",
        "ch"
      ],
      [
        "Ġt",
        "ast"
      ],
      [
        "Ġto",
        "w"
      ],
      [
        "Ġm",
        "or"
      ],
      [
        "Ġn",
        "ice"
      ],
      [
        "Ġne",
        "xt"
      ],
      [
        "Ġmom",
        "my"
      ],
      [
        "ĠW",
        "hen"
      ],
      [
        "Ġfore",
        "st"
      ],
      [
        "a",
        "k"
      ],
      [
        "i",
        "re"
      ],
      [
        "p",
        "ort"
      ],
      [
        "u",
        "ll"
      ],
      [
        "Ġf",
        "ar"
      ],
      [
        "Ġc",
        "ry"
      ],
      [
        "Ġg",
        "l"
      ],
      [
        "Ġe",
        "at"
      ],
      [
        "Ġu",
        "n"
      ],
      [
        "ec",
        "t"
      ],
      [
        "ĠT",
        "om"
      ],
      [
        "ĠA",
        "fter"
      ],
      [
        "Ġno",
        "dded"
      ],
      [
        "us",
        "h"
      ],
      [
        "Ġlear",
        "ned"
      ],
      [
        "Ġmagic",
        "al"
      ],
      [
        "Ġcuri",
        "ous"
      ],
      [
        "Ġbra",
        "ve"
      ],
      [
        "f",
        "f"
      ],
      [
        "Ġ",
        "ide"
      ],
      [
        "Ġb",
        "all"
      ],
      [
        "Ġd",
        "if"
      ],
      [
        "Ġbe",
        "h"
      ],
      [
        "Ġst",
        "rong"
      ],
      [
        "st",
        "er"
      ],
      [
        "Ġre",
        "pl"
      ],
      [
        "Ġbo",
        "x"
      ],
      [
        "Ġwor",
        "k"
      ],
      [
        "Ġco",
        "l"
      ],
      [
        "ĠD",
        "aisy"
      ],
      [
        "Ġcare",
        "fully"
      ],
      [
        "Ġpr",
        "in"
      ],
      [
        "s",
        "h"
      ],
      [
        "Ġs",
        "ec"
      ],
      [
        "Ġs",
        "low"
      ],
      [
        "Ġb",
        "it"
      ],
      [
        "Ġf",
        "ly"
      ],
      [
        "Ġl",
        "et"
      ],
      [
        "Ġm",
        "ouse"
      ],
      [
        "Ġg",
        "ame"
      ],
      [
        "Ġha",
        "ving"
      ],
      [
        "ir",
        "st"
      ],
      [
        "ĠE",
        "m"
      ],
      [
        "Ġfa",
        "ce"
      ],
      [
        "Ġgra",
        "bbed"
      ],
      [
        "Ġbec",
        "ame"
      ],
      [
        "Ġwar",
        "m"
      ],
      [
        "Ġyear",
        "s"
      ],
      [
        "Ġide",
        "a"
      ],
      [
        "a",
        "il"
      ],
      [
        "Ġ",
        "You"
      ],
      [
        "Ġwa",
        "ved"
      ],
      [
        "Ġp",
        "at"
      ],
      [
        "en",
        "ny"
      ],
      [
        "le",
        "s"
      ],
      [
        "Ġsa",
        "fe"
      ],
      [
        "Ġst",
        "e"
      ],
      [
        "Ġwh",
        "y"
      ],
      [
        "ter",
        "f"
      ],
      [
        "Ġbut",
        "terf"
      ],
      [
        "ĠF",
        "rom"
      ],
      [
        "Ġwonder",
        "ful"
      ],
      [
        "Ġrepl",
        "ied"
      ],
      [
        "e",
        "et"
      ],
      [
        "t",
        "y"
      ],
      [
        "Ġt",
        "ired"
      ],
      [
        "Ġw",
        "ind"
      ],
      [
        "er",
        "ed"
      ],
      [
        "is",
        "hed"
      ],
      [
        "ĠJ",
        "ill"
      ],
      [
        "Ġk",
        "itt"
      ],
      [
        "Ġdo",
        "or"
      ],
      [
        "Ġwal",
        "k"
      ],
      [
        "Ġgra",
        "ss"
      ],
      [
        "Ġpo",
        "nd"
      ],
      [
        "Ġcon",
        "t"
      ],
      [
        "Ġstran",
        "ge"
      ],
      [
        "e",
        "st"
      ],
      [
        "l",
        "i"
      ],
      [
        "r",
        "ough"
      ],
      [
        "Ġ",
        "z"
      ],
      [
        "Ġf",
        "ill"
      ],
      [
        "Ġc",
        "le"
      ],
      [
        "Ġc",
        "ra"
      ],
      [
        "Ġth",
        "rough"
      ],
      [
        "Ġu",
        "nder"
      ],
      [
        "Ġn",
        "ight"
      ],
      [
        "Ġr",
        "ight"
      ],
      [
        "Ġre",
        "al"
      ],
      [
        "ch",
        "ing"
      ],
      [
        "Ġsh",
        "in"
      ],
      [
        "Ġman",
        "y"
      ],
      [
        "Ġsw",
        "eet"
      ],
      [
        "Ġdel",
        "ic"
      ],
      [
        "Ġbutterf",
        "ly"
      ],
      [
        "T",
        "h"
      ],
      [
        "i",
        "x"
      ],
      [
        "n",
        "g"
      ],
      [
        "ou",
        "ted"
      ],
      [
        "ou",
        "nt"
      ],
      [
        "Ġf",
        "ish"
      ],
      [
        "Ġhe",
        "ad"
      ],
      [
        "Ġc",
        "reat"
      ],
      [
        "Ġsh",
        "ould"
      ],
      [
        "Ġpick",
        "ed"
      ],
      [
        "\"",
        "."
      ],
      [
        "c",
        "o"
      ],
      [
        "z",
        "ing"
      ],
      [
        "Ġhe",
        "re"
      ],
      [
        "Ġp",
        "a"
      ],
      [
        "Ġp",
        "are"
      ],
      [
        "Ġo",
        "r"
      ],
      [
        "ll",
        "ow"
      ],
      [
        "Ġsh",
        "outed"
      ],
      [
        "Ġj",
        "o"
      ],
      [
        "ĠM",
        "ommy"
      ],
      [
        "Ġdo",
        "g"
      ],
      [
        "nt",
        "s"
      ],
      [
        "Ġsee",
        "m"
      ],
      [
        "fe",
        "re"
      ],
      [
        "Ġsurpr",
        "ise"
      ],
      [
        "Ġdif",
        "fere"
      ],
      [
        "Ġsec",
        "ret"
      ],
      [
        "Ġkitt",
        "y"
      ],
      [
        "Ġpare",
        "nts"
      ],
      [
        "f",
        "t"
      ],
      [
        "m",
        "er"
      ],
      [
        "Ġt",
        "al"
      ],
      [
        "Ġa",
        "pp"
      ],
      [
        "Ġb",
        "ow"
      ],
      [
        "Ġf",
        "ood"
      ],
      [
        "Ġf",
        "ull"
      ],
      [
        "Ġd",
        "ro"
      ],
      [
        "The",
        "y"
      ],
      [
        "ad",
        "ow"
      ],
      [
        "ĠI",
        "n"
      ],
      [
        "Ġsh",
        "are"
      ],
      [
        "ill",
        "y"
      ],
      [
        "Ġno",
        "ise"
      ],
      [
        "Ġrun",
        "ning"
      ],
      [
        "Ġfill",
        "ed"
      ],
      [
        "M",
        "ommy"
      ],
      [
        "i",
        "zed"
      ],
      [
        "p",
        "h"
      ],
      [
        "Ġ",
        "R"
      ],
      [
        "he",
        "s"
      ],
      [
        "Ġs",
        "le"
      ],
      [
        "Ġs",
        "qu"
      ],
      [
        "Ġf",
        "irst"
      ],
      [
        "Ġl",
        "oud"
      ],
      [
        "Ġl",
        "ess"
      ],
      [
        "Ġp",
        "er"
      ],
      [
        "The",
        "n"
      ],
      [
        "ĠM",
        "ia"
      ],
      [
        "ran",
        "k"
      ],
      [
        "Ġke",
        "ep"
      ],
      [
        "Ġtoy",
        "s"
      ],
      [
        "Ġtr",
        "uck"
      ],
      [
        "Ġlea",
        "ves"
      ],
      [
        "Ġenjoy",
        "ed"
      ],
      [
        "Ġdiffere",
        "nt"
      ],
      [
        "M",
        "olly"
      ],
      [
        "l",
        "u"
      ],
      [
        "n",
        "er"
      ],
      [
        "Ġ",
        "N"
      ],
      [
        "Ġw",
        "ood"
      ],
      [
        "Ġd",
        "one"
      ],
      [
        "at",
        "her"
      ],
      [
        "Ġbe",
        "ing"
      ],
      [
        "Ġr",
        "ed"
      ],
      [
        "ĠJ",
        "immy"
      ],
      [
        "Ġre",
        "ally"
      ],
      [
        "Ġhim",
        "self"
      ],
      [
        "Ġexpl",
        "or"
      ],
      [
        "Ġama",
        "zing"
      ],
      [
        "Ġar",
        "ri"
      ],
      [
        "L",
        "ucy"
      ],
      [
        "c",
        "ed"
      ],
      [
        "o",
        "ck"
      ],
      [
        "u",
        "ed"
      ],
      [
        "Ġt",
        "re"
      ],
      [
        "Ġs",
        "ound"
      ],
      [
        "Ġd",
        "in"
      ],
      [
        "Ġm",
        "at"
      ],
      [
        "ĠB",
        "ob"
      ],
      [
        "Ġbr",
        "ight"
      ],
      [
        "Ġfo",
        "x"
      ],
      [
        "Ġfo",
        "llow"
      ],
      [
        "Ġcom",
        "ing"
      ],
      [
        "ĠDad",
        "dy"
      ],
      [
        "Ġste",
        "pped"
      ],
      [
        "Ġarri",
        "ved"
      ],
      [
        "M",
        "ummy"
      ],
      [
        "u",
        "ally"
      ],
      [
        "w",
        "here"
      ],
      [
        "Ġp",
        "re"
      ],
      [
        "Ġm",
        "other"
      ],
      [
        "at",
        "ed"
      ],
      [
        "le",
        "ph"
      ],
      [
        "pp",
        "ing"
      ],
      [
        "Ġhapp",
        "ily"
      ],
      [
        "Ġclo",
        "se"
      ],
      [
        "Ġstay",
        "ed"
      ],
      [
        "Ġim",
        "port"
      ],
      [
        "Ġlist",
        "en"
      ],
      [
        "Ġcont",
        "in"
      ],
      [
        "Ġimport",
        "ant"
      ],
      [
        "S",
        "he"
      ],
      [
        "a",
        "ched"
      ],
      [
        "i",
        "z"
      ],
      [
        "Ġ",
        "ice"
      ],
      [
        "Ġt",
        "ur"
      ],
      [
        "Ġto",
        "p"
      ],
      [
        "Ġd",
        "eep"
      ],
      [
        "Ġg",
        "i"
      ],
      [
        "ĠS",
        "ue"
      ],
      [
        "Ġbe",
        "l"
      ],
      [
        "Ġr",
        "i"
      ],
      [
        "Ġr",
        "u"
      ],
      [
        "Ġy",
        "ummy"
      ],
      [
        "Ġne",
        "ar"
      ],
      [
        "Ġfa",
        "v"
      ],
      [
        "ro",
        "om"
      ],
      [
        "ab",
        "y"
      ],
      [
        "Ġget",
        "ting"
      ],
      [
        "Ġbl",
        "ack"
      ],
      [
        "Ġmor",
        "ning"
      ],
      [
        "Ġslow",
        "ly"
      ],
      [
        "Ġsle",
        "ep"
      ],
      [
        "Ġless",
        "on"
      ],
      [
        "Ġcontin",
        "ued"
      ],
      [
        "o",
        "on"
      ],
      [
        "z",
        "y"
      ],
      [
        "Ġh",
        "igh"
      ],
      [
        "Ġf",
        "ig"
      ],
      [
        "Ġl",
        "e"
      ],
      [
        "Ġp",
        "ow"
      ],
      [
        "Ġm",
        "on"
      ],
      [
        "Ġg",
        "re"
      ],
      [
        "Ġg",
        "one"
      ],
      [
        "Ġg",
        "ive"
      ],
      [
        "ir",
        "t"
      ],
      [
        "Ġher",
        "self"
      ],
      [
        "Ġu",
        "se"
      ],
      [
        "Ġsp",
        "ot"
      ],
      [
        "ss",
        "ed"
      ],
      [
        "ĠL",
        "et"
      ],
      [
        "Ġab",
        "le"
      ],
      [
        "Ġsome",
        "one"
      ],
      [
        "vent",
        "ually"
      ],
      [
        "Ġho",
        "pped"
      ],
      [
        "Ġfast",
        "er"
      ],
      [
        "Ġflow",
        "er"
      ],
      [
        "Ġflow",
        "ers"
      ],
      [
        "Ġremember",
        "ed"
      ],
      [
        "Ġbeh",
        "ind"
      ],
      [
        "Ġdelic",
        "ious"
      ],
      [
        "Ġseem",
        "ed"
      ],
      [
        "Ġper",
        "f"
      ],
      [
        "C",
        "an"
      ],
      [
        "c",
        "her"
      ],
      [
        "h",
        "o"
      ],
      [
        "in",
        "ed"
      ],
      [
        "Ġd",
        "re"
      ],
      [
        "Ġd",
        "ark"
      ],
      [
        "Ġp",
        "ain"
      ],
      [
        "is",
        "it"
      ],
      [
        "ir",
        "c"
      ],
      [
        "Ġbig",
        "ger"
      ],
      [
        "ĠT",
        "o"
      ],
      [
        "Ġv",
        "isit"
      ],
      [
        "Ġco",
        "ld"
      ],
      [
        "Ġbr",
        "other"
      ],
      [
        "Ġbl",
        "ue"
      ],
      [
        "Ġho",
        "le"
      ],
      [
        "ĠG",
        "ra"
      ],
      [
        "Ġsurpr",
        "ised"
      ],
      [
        "Ġama",
        "zed"
      ],
      [
        "Ġfin",
        "ally"
      ],
      [
        "Ġtea",
        "cher"
      ],
      [
        "Ġtre",
        "es"
      ],
      [
        "b",
        "ed"
      ],
      [
        "b",
        "le"
      ],
      [
        "i",
        "et"
      ],
      [
        "Ġw",
        "here"
      ],
      [
        "ed",
        "dy"
      ],
      [
        "Ġh",
        "ar"
      ],
      [
        "Ġh",
        "urt"
      ],
      [
        "Ġd",
        "ri"
      ],
      [
        "Ġsp",
        "l"
      ],
      [
        "ard",
        "s"
      ],
      [
        "Ġj",
        "oy"
      ],
      [
        "ĠM",
        "om"
      ],
      [
        "ĠM",
        "ary"
      ],
      [
        "Ġcl",
        "im"
      ],
      [
        "Ġfe",
        "w"
      ],
      [
        "ear",
        "ed"
      ],
      [
        "ĠL",
        "ittle"
      ],
      [
        "ro",
        "ss"
      ],
      [
        "Ġevery",
        "thing"
      ],
      [
        "Ġbird",
        "s"
      ],
      [
        "Ġqu",
        "iet"
      ],
      [
        "Ġro",
        "ck"
      ],
      [
        "Ġmo",
        "ve"
      ],
      [
        "Ġany",
        "thing"
      ],
      [
        "Ġlear",
        "n"
      ],
      [
        "Ġcat",
        "ch"
      ],
      [
        "Ġstor",
        "y"
      ],
      [
        "Ġac",
        "ross"
      ],
      [
        "ff",
        "y"
      ],
      [
        "Ġbel",
        "ong"
      ],
      [
        "Ġfig",
        "ure"
      ],
      [
        "Ġperf",
        "ect"
      ],
      [
        "b",
        "e"
      ],
      [
        "i",
        "o"
      ],
      [
        "s",
        "c"
      ],
      [
        "s",
        "o"
      ],
      [
        "u",
        "l"
      ],
      [
        "Ġs",
        "or"
      ],
      [
        "Ġb",
        "ar"
      ],
      [
        "Ġb",
        "un"
      ],
      [
        "Ġto",
        "uch"
      ],
      [
        "Ġf",
        "ur"
      ],
      [
        "Ġf",
        "ree"
      ],
      [
        "Ġl",
        "and"
      ],
      [
        "Ġp",
        "rom"
      ],
      [
        "Ġp",
        "ea"
      ],
      [
        "Ġg",
        "ent"
      ],
      [
        "ar",
        "ing"
      ],
      [
        "ll",
        "ed"
      ],
      [
        "Ġe",
        "l"
      ],
      [
        "Ġe",
        "leph"
      ],
      [
        "Ġn",
        "ame"
      ],
      [
        "Ġn",
        "aught"
      ],
      [
        "un",
        "g"
      ],
      [
        "Ġre",
        "st"
      ],
      [
        "Ġre",
        "ached"
      ],
      [
        "Ġon",
        "ly"
      ],
      [
        "Ġsh",
        "op"
      ],
      [
        "ic",
        "y"
      ],
      [
        "ĠA",
        "ll"
      ],
      [
        "Ġme",
        "adow"
      ],
      [
        "ĠW",
        "e"
      ],
      [
        "ĠTim",
        "my"
      ],
      [
        "Ġbl",
        "ank"
      ],
      [
        "Ġlong",
        "er"
      ],
      [
        "Ġshow",
        "ed"
      ],
      [
        "Ġus",
        "ed"
      ],
      [
        "Ġgl",
        "ad"
      ],
      [
        "Ġcol",
        "or"
      ],
      [
        "Ġcreat",
        "ure"
      ],
      [
        "Ġexplor",
        "ing"
      ],
      [
        "Ġsor",
        "ry"
      ],
      [
        "Ġeleph",
        "ant"
      ],
      [
        "Ġblank",
        "et"
      ],
      [
        "H",
        "er"
      ],
      [
        "J",
        "immy"
      ],
      [
        "M",
        "om"
      ],
      [
        "T",
        "im"
      ],
      [
        "b",
        "or"
      ],
      [
        "i",
        "es"
      ],
      [
        "p",
        "ot"
      ],
      [
        "s",
        "ed"
      ],
      [
        "Ġs",
        "n"
      ],
      [
        "Ġs",
        "uddenly"
      ],
      [
        "in",
        "ally"
      ],
      [
        "re",
        "ed"
      ],
      [
        "Ġf",
        "ix"
      ],
      [
        "Ġr",
        "ain"
      ],
      [
        "Ġyou",
        "ng"
      ],
      [
        "Ġan",
        "g"
      ],
      [
        "Ġk",
        "id"
      ],
      [
        "ĠM",
        "ax"
      ],
      [
        "Ġse",
        "ar"
      ],
      [
        "Ġcl",
        "a"
      ],
      [
        "Ġlo",
        "ve"
      ],
      [
        "Ġal",
        "so"
      ],
      [
        "and",
        "y"
      ],
      [
        "Ġtry",
        "ing"
      ],
      [
        "Ġow",
        "n"
      ],
      [
        "Ġreal",
        "ized"
      ],
      [
        "Ġshin",
        "y"
      ],
      [
        "Ġbun",
        "ny"
      ],
      [
        "Ġpea",
        "ce"
      ],
      [
        "A",
        "t"
      ],
      [
        "h",
        "y"
      ],
      [
        "l",
        "a"
      ],
      [
        "Ġt",
        "all"
      ],
      [
        "Ġs",
        "at"
      ],
      [
        "Ġs",
        "ay"
      ],
      [
        "Ġs",
        "et"
      ],
      [
        "Ġs",
        "now"
      ],
      [
        "Ġw",
        "on"
      ],
      [
        "Ġb",
        "ad"
      ],
      [
        "Ġl",
        "ady"
      ],
      [
        "Ġc",
        "irc"
      ],
      [
        "Ġm",
        "ess"
      ],
      [
        "le",
        "ase"
      ],
      [
        "ir",
        "y"
      ],
      [
        "Ġbe",
        "lie"
      ],
      [
        "Ġy",
        "ell"
      ],
      [
        "Ġpl",
        "ant"
      ],
      [
        "Ġhapp",
        "en"
      ],
      [
        "Ġmom",
        "ent"
      ],
      [
        "Ġwor",
        "d"
      ],
      [
        "ep",
        "end"
      ],
      [
        "Ġmu",
        "st"
      ],
      [
        "Ġen",
        "ough"
      ],
      [
        "Ġmo",
        "st"
      ],
      [
        "our",
        "s"
      ],
      [
        "ap",
        "e"
      ],
      [
        "Ġow",
        "l"
      ],
      [
        "Ġfl",
        "o"
      ],
      [
        "Ġpret",
        "ty"
      ],
      [
        "ĠEm",
        "ma"
      ],
      [
        "Ġcle",
        "an"
      ],
      [
        "Ġunder",
        "st"
      ],
      [
        "ĠN",
        "ow"
      ],
      [
        "Ġwood",
        "s"
      ],
      [
        "'",
        "ll"
      ],
      [
        "F",
        "rom"
      ],
      [
        "H",
        "is"
      ],
      [
        "H",
        "ell"
      ],
      [
        "k",
        "ay"
      ],
      [
        "t",
        "on"
      ],
      [
        "Ġ",
        "ve"
      ],
      [
        "Ġt",
        "ri"
      ],
      [
        "Ġt",
        "ell"
      ],
      [
        "Ġs",
        "ide"
      ],
      [
        "ing",
        "ing"
      ],
      [
        "Ġp",
        "ink"
      ],
      [
        "Ġg",
        "r"
      ],
      [
        "id",
        "d"
      ],
      [
        "et",
        "er"
      ],
      [
        "Ġe",
        "m"
      ],
      [
        "Ġso",
        "ft"
      ],
      [
        "ce",
        "pt"
      ],
      [
        "un",
        "k"
      ],
      [
        "Ġhapp",
        "ened"
      ],
      [
        "ĠM",
        "ummy"
      ],
      [
        "as",
        "h"
      ],
      [
        "Ġlook",
        "s"
      ],
      [
        "ĠAnd",
        "y"
      ],
      [
        "Ġfin",
        "ished"
      ],
      [
        "Ġhand",
        "s"
      ],
      [
        "Ġball",
        "oon"
      ],
      [
        "Ġprin",
        "ce"
      ],
      [
        "Th",
        "ank"
      ],
      [
        "Ġmon",
        "ster"
      ],
      [
        "Ġnaught",
        "y"
      ],
      [
        "Ġbelie",
        "ve"
      ],
      [
        "Hell",
        "o"
      ],
      [
        "D",
        "on"
      ],
      [
        "W",
        "e"
      ],
      [
        "a",
        "c"
      ],
      [
        "h",
        "ar"
      ],
      [
        "m",
        "e"
      ],
      [
        "m",
        "ore"
      ],
      [
        "n",
        "n"
      ],
      [
        "Ġa",
        "ir"
      ],
      [
        "Ġf",
        "ro"
      ],
      [
        "Ġl",
        "ight"
      ],
      [
        "Ġp",
        "art"
      ],
      [
        "Ġm",
        "aking"
      ],
      [
        "Ġo",
        "ran"
      ],
      [
        "Ġg",
        "um"
      ],
      [
        "Ġg",
        "ho"
      ],
      [
        "ll",
        "a"
      ],
      [
        "ĠS",
        "pot"
      ],
      [
        "ver",
        "ed"
      ],
      [
        "ĠThe",
        "re"
      ],
      [
        "Ġst",
        "re"
      ],
      [
        "Ġr",
        "ace"
      ],
      [
        "am",
        "es"
      ],
      [
        "Ġk",
        "n"
      ],
      [
        "Ġat",
        "e"
      ],
      [
        "Ġch",
        "o"
      ],
      [
        "Åĵ",
        "I"
      ],
      [
        "Ġexpl",
        "ain"
      ],
      [
        "Ġother",
        "s"
      ],
      [
        "ĠF",
        "rank"
      ],
      [
        "Ġany",
        "more"
      ],
      [
        "Ġclos",
        "ed"
      ],
      [
        "Ġneed",
        "ed"
      ],
      [
        "Ġtast",
        "ed"
      ],
      [
        "Ġpat",
        "ient"
      ],
      [
        "lu",
        "ffy"
      ],
      [
        "Ġdin",
        "ner"
      ],
      [
        "Ġprom",
        "ised"
      ],
      [
        "Ġgho",
        "st"
      ],
      [
        "T",
        "om"
      ],
      [
        "i",
        "ke"
      ],
      [
        "l",
        "ing"
      ],
      [
        "s",
        "y"
      ],
      [
        "he",
        "ne"
      ],
      [
        "Ġs",
        "u"
      ],
      [
        "Ġb",
        "ro"
      ],
      [
        "re",
        "n"
      ],
      [
        "Ġp",
        "ir"
      ],
      [
        "Ġp",
        "ic"
      ],
      [
        "Ġp",
        "ro"
      ],
      [
        "Ġm",
        "et"
      ],
      [
        "Ġm",
        "ill"
      ],
      [
        "Ġsa",
        "me"
      ],
      [
        "or",
        "ite"
      ],
      [
        "Ġe",
        "ar"
      ],
      [
        "Ġst",
        "ore"
      ],
      [
        "Ġst",
        "one"
      ],
      [
        "ri",
        "es"
      ],
      [
        "am",
        "a"
      ],
      [
        "Ġre",
        "lie"
      ],
      [
        "um",
        "b"
      ],
      [
        "ĠT",
        "h"
      ],
      [
        "ĠT",
        "hat"
      ],
      [
        "ĠA",
        "l"
      ],
      [
        "Ġwor",
        "ked"
      ],
      [
        "Ġgra",
        "nd"
      ],
      [
        "em",
        "ent"
      ],
      [
        "Ġop",
        "en"
      ],
      [
        "Ġadventure",
        "s"
      ],
      [
        "Ġchild",
        "ren"
      ],
      [
        "Ġdis",
        "co"
      ],
      [
        "Ġdro",
        "ve"
      ],
      [
        "Ġfollow",
        "ed"
      ],
      [
        "Ġfav",
        "orite"
      ],
      [
        "Ġgre",
        "en"
      ],
      [
        "Ġel",
        "se"
      ],
      [
        "hene",
        "ver"
      ],
      [
        "Ġpir",
        "ate"
      ],
      [
        "O",
        "h"
      ],
      [
        "a",
        "w"
      ],
      [
        "l",
        "in"
      ],
      [
        "l",
        "ax"
      ],
      [
        "o",
        "s"
      ],
      [
        "r",
        "ot"
      ],
      [
        "s",
        "p"
      ],
      [
        "t",
        "ur"
      ],
      [
        "u",
        "ne"
      ],
      [
        "Ġa",
        "m"
      ],
      [
        "Ġw",
        "rong"
      ],
      [
        "Ġh",
        "ill"
      ],
      [
        "re",
        "l"
      ],
      [
        "Ġl",
        "one"
      ],
      [
        "Ġc",
        "aught"
      ],
      [
        "Ġc",
        "ount"
      ],
      [
        "Ġd",
        "r"
      ],
      [
        "Ġp",
        "ie"
      ],
      [
        "Ġg",
        "ather"
      ],
      [
        "Ġsa",
        "il"
      ],
      [
        "Ġr",
        "a"
      ],
      [
        "Ġre",
        "lax"
      ],
      [
        "Ġre",
        "tur"
      ],
      [
        "Ġwh",
        "ite"
      ],
      [
        "ra",
        "ct"
      ],
      [
        "ĠA",
        "my"
      ],
      [
        "Ġhelp",
        "ed"
      ],
      [
        "Ġag",
        "reed"
      ],
      [
        "Ġme",
        "an"
      ],
      [
        "Ġthan",
        "k"
      ],
      [
        "as",
        "k"
      ],
      [
        "Ġbl",
        "ock"
      ],
      [
        "Ġfo",
        "ld"
      ],
      [
        "Ġad",
        "m"
      ],
      [
        "Ġsw",
        "im"
      ],
      [
        "Ġmy",
        "ster"
      ],
      [
        "Ġim",
        "ag"
      ],
      [
        "Ġbu",
        "ild"
      ],
      [
        "Ġpret",
        "end"
      ],
      [
        "Ġtal",
        "k"
      ],
      [
        "Ġgent",
        "le"
      ],
      [
        "Ġkid",
        "s"
      ],
      [
        "Ġrelie",
        "ved"
      ],
      [
        "Ġpie",
        "ce"
      ],
      [
        "A",
        "nd"
      ],
      [
        "W",
        "hy"
      ],
      [
        "b",
        "o"
      ],
      [
        "d",
        "e"
      ],
      [
        "d",
        "er"
      ],
      [
        "i",
        "ch"
      ],
      [
        "k",
        "en"
      ],
      [
        "p",
        "er"
      ],
      [
        "Ġt",
        "ight"
      ],
      [
        "Ġs",
        "l"
      ],
      [
        "Ġs",
        "uch"
      ],
      [
        "Ġb",
        "ush"
      ],
      [
        "Ġh",
        "or"
      ],
      [
        "Ġh",
        "ide"
      ],
      [
        "er",
        "ful"
      ],
      [
        "Ġc",
        "ool"
      ],
      [
        "Ġd",
        "ream"
      ],
      [
        "Ġp",
        "us"
      ],
      [
        "Ġg",
        "u"
      ],
      [
        "at",
        "h"
      ],
      [
        "Ġbe",
        "ll"
      ],
      [
        "ck",
        "et"
      ],
      [
        "Ġst",
        "and"
      ],
      [
        "ig",
        "n"
      ],
      [
        "Ġsp",
        "e"
      ],
      [
        "Ġsp",
        "o"
      ],
      [
        "Ġfriend",
        "ly"
      ],
      [
        "Ġat",
        "t"
      ],
      [
        "Ġfe",
        "ll"
      ],
      [
        "Ġlo",
        "st"
      ],
      [
        "Ġal",
        "one"
      ],
      [
        "Ġwor",
        "ry"
      ],
      [
        "Ġbr",
        "ought"
      ],
      [
        "Ġsun",
        "ny"
      ],
      [
        "ĠF",
        "luffy"
      ],
      [
        "Ġpo",
        "cket"
      ],
      [
        "Ġmo",
        "d"
      ],
      [
        "Ġfo",
        "ot"
      ],
      [
        "Ġbot",
        "t"
      ],
      [
        "Ġlist",
        "ened"
      ],
      [
        "Ġtow",
        "ards"
      ],
      [
        "Ġgi",
        "ant"
      ],
      [
        "Ġri",
        "ver"
      ],
      [
        "Ġdre",
        "ss"
      ],
      [
        "Ġhar",
        "bor"
      ],
      [
        "Ġang",
        "ry"
      ],
      [
        "'",
        "re"
      ],
      [
        "A",
        "fter"
      ],
      [
        "D",
        "o"
      ],
      [
        "L",
        "ily"
      ],
      [
        "W",
        "ow"
      ],
      [
        "a",
        "v"
      ],
      [
        "e",
        "ad"
      ],
      [
        "f",
        "ort"
      ],
      [
        "r",
        "ed"
      ],
      [
        "r",
        "ated"
      ],
      [
        "s",
        "w"
      ],
      [
        "Ġ",
        "3"
      ],
      [
        "Ġs",
        "ch"
      ],
      [
        "Ġh",
        "ours"
      ],
      [
        "Ġf",
        "ight"
      ],
      [
        "Ġhe",
        "ar"
      ],
      [
        "Ġc",
        "her"
      ],
      [
        "ing",
        "s"
      ],
      [
        "Ġp",
        "ack"
      ],
      [
        "Ġm",
        "is"
      ],
      [
        "Ġm",
        "ark"
      ],
      [
        "at",
        "ion"
      ],
      [
        "le",
        "ss"
      ],
      [
        "et",
        "le"
      ],
      [
        "Ġbe",
        "etle"
      ],
      [
        "ke",
        "ep"
      ],
      [
        "Ġy",
        "ard"
      ],
      [
        "Ġwh",
        "ich"
      ],
      [
        "Ġsh",
        "o"
      ],
      [
        "Ġsh",
        "ared"
      ],
      [
        "Ġan",
        "sw"
      ],
      [
        "Ġli",
        "fe"
      ],
      [
        "fu",
        "sed"
      ],
      [
        "ic",
        "op"
      ],
      [
        "ĠA",
        "nn"
      ],
      [
        "Ġhel",
        "icop"
      ],
      [
        "Ġexcit",
        "ement"
      ],
      [
        "ick",
        "en"
      ],
      [
        "Ġwor",
        "ried"
      ],
      [
        "Ġch",
        "icken"
      ],
      [
        "Ġv",
        "io"
      ],
      [
        "Ġco",
        "in"
      ],
      [
        "as",
        "ed"
      ],
      [
        "Ġdad",
        "dy"
      ],
      [
        "Ġwonder",
        "ed"
      ],
      [
        "Ġtast",
        "e"
      ],
      [
        "Ġz",
        "i"
      ],
      [
        "Ġpa",
        "ss"
      ],
      [
        "Ġjo",
        "in"
      ],
      [
        "Ġapp",
        "eared"
      ],
      [
        "Ġpre",
        "s"
      ],
      [
        "ĠGra",
        "ce"
      ],
      [
        "Ġclim",
        "b"
      ],
      [
        "sc",
        "ape"
      ],
      [
        "Ġshop",
        "keep"
      ],
      [
        "Ġyell",
        "ow"
      ],
      [
        "Ġbro",
        "ken"
      ],
      [
        "Ġlone",
        "ly"
      ],
      [
        "Ġspe",
        "ed"
      ],
      [
        "Ġsch",
        "ool"
      ],
      [
        "Ġhelicop",
        "ter"
      ],
      [
        "Ġvio",
        "lin"
      ],
      [
        "Ġshopkeep",
        "er"
      ],
      [
        "A",
        "s"
      ],
      [
        "B",
        "ob"
      ],
      [
        "E",
        "very"
      ],
      [
        "L",
        "ook"
      ],
      [
        "b",
        "ar"
      ],
      [
        "c",
        "ing"
      ],
      [
        "c",
        "ream"
      ],
      [
        "u",
        "al"
      ],
      [
        "z",
        "e"
      ],
      [
        "he",
        "l"
      ],
      [
        "Ġt",
        "aking"
      ],
      [
        "Ġs",
        "it"
      ],
      [
        "Ġw",
        "et"
      ],
      [
        "in",
        "ted"
      ],
      [
        "Ġb",
        "re"
      ],
      [
        "Ġb",
        "ag"
      ],
      [
        "Ġb",
        "ran"
      ],
      [
        "Ġb",
        "us"
      ],
      [
        "Ġf",
        "all"
      ],
      [
        "Ġwas",
        "n"
      ],
      [
        "Ġhe",
        "ld"
      ],
      [
        "Ġc",
        "ut"
      ],
      [
        "Ġd",
        "ry"
      ],
      [
        "Ġd",
        "ist"
      ],
      [
        "Ġp",
        "h"
      ],
      [
        "Ġp",
        "ar"
      ],
      [
        "Ġm",
        "ight"
      ],
      [
        "Ġg",
        "row"
      ],
      [
        "at",
        "er"
      ],
      [
        "Ġth",
        "in"
      ],
      [
        "Ġth",
        "ink"
      ],
      [
        "or",
        "d"
      ],
      [
        "ĠS",
        "andy"
      ],
      [
        "Ġe",
        "ventually"
      ],
      [
        "Ġst",
        "u"
      ],
      [
        "ke",
        "y"
      ],
      [
        "el",
        "c"
      ],
      [
        "Ġwe",
        "ll"
      ],
      [
        "Ġsh",
        "irt"
      ],
      [
        "Ġbut",
        "ton"
      ],
      [
        "ĠB",
        "e"
      ],
      [
        "ĠB",
        "illy"
      ],
      [
        "Ġfa",
        "iry"
      ],
      [
        "âĤ¬â",
        "Ģ"
      ],
      [
        "Ġhug",
        "e"
      ],
      [
        "Ġmo",
        "ved"
      ],
      [
        "Ġlaug",
        "hing"
      ],
      [
        "ink",
        "y"
      ],
      [
        "Ġlea",
        "ve"
      ],
      [
        "Ġpu",
        "lled"
      ],
      [
        "th",
        "y"
      ],
      [
        "Ġstor",
        "ies"
      ],
      [
        "Ġmor",
        "al"
      ],
      [
        "Ġfar",
        "mer"
      ],
      [
        "Ġfly",
        "ing"
      ],
      [
        "Th",
        "is"
      ],
      [
        "ount",
        "ain"
      ],
      [
        "Ġspot",
        "ted"
      ],
      [
        "Ġbelong",
        "ed"
      ],
      [
        "epend",
        "able"
      ],
      [
        "idd",
        "le"
      ],
      [
        "Ġem",
        "bar"
      ],
      [
        "ac",
        "hel"
      ],
      [
        "Ġpart",
        "y"
      ],
      [
        "Ġdr",
        "ink"
      ],
      [
        "Ġpres",
        "ent"
      ],
      [
        "Ġembar",
        "ra"
      ],
      [
        "a",
        "pp"
      ],
      [
        "e",
        "en"
      ],
      [
        "g",
        "ot"
      ],
      [
        "m",
        "ing"
      ],
      [
        "r",
        "or"
      ],
      [
        "s",
        "ic"
      ],
      [
        "t",
        "o"
      ],
      [
        "Ġw",
        "ished"
      ],
      [
        "Ġw",
        "elc"
      ],
      [
        "Ġb",
        "ite"
      ],
      [
        "ou",
        "p"
      ],
      [
        "Ġhe",
        "al"
      ],
      [
        "Ġhe",
        "art"
      ],
      [
        "Ġc",
        "urt"
      ],
      [
        "Ġd",
        "es"
      ],
      [
        "Ġp",
        "ig"
      ],
      [
        "Ġp",
        "lease"
      ],
      [
        "Ġm",
        "in"
      ],
      [
        "Ġm",
        "iddle"
      ],
      [
        "Ġo",
        "kay"
      ],
      [
        "Ġshe",
        "l"
      ],
      [
        "Ġst",
        "r"
      ],
      [
        "Ġr",
        "id"
      ],
      [
        "ig",
        "g"
      ],
      [
        "Ġwith",
        "out"
      ],
      [
        "Ġwe",
        "ar"
      ],
      [
        "Ġfor",
        "got"
      ],
      [
        "Ġne",
        "igh"
      ],
      [
        "Ġsp",
        "ent"
      ],
      [
        "Ġj",
        "et"
      ],
      [
        "ĠE",
        "lly"
      ],
      [
        "ĠE",
        "lla"
      ],
      [
        "Ġexcit",
        "ing"
      ],
      [
        "ss",
        "el"
      ],
      [
        "ie",
        "ld"
      ],
      [
        "Ġme",
        "et"
      ],
      [
        "ĠW",
        "ith"
      ],
      [
        "ĠW",
        "hat"
      ],
      [
        "Ġco",
        "ll"
      ],
      [
        "ust",
        "rated"
      ],
      [
        "ĠEvery",
        "where"
      ],
      [
        "Ġen",
        "g"
      ],
      [
        "Ġrem",
        "ind"
      ],
      [
        "Ġbu",
        "y"
      ],
      [
        "Ġar",
        "m"
      ],
      [
        "Ġdon",
        "Ã¢"
      ],
      [
        "Ġtea",
        "ch"
      ],
      [
        "Ġwait",
        "ed"
      ],
      [
        "Ġche",
        "st"
      ],
      [
        "Ġdan",
        "ce"
      ],
      [
        "Ġdan",
        "ger"
      ],
      [
        "Ġdis",
        "app"
      ],
      [
        "Ġtow",
        "n"
      ],
      [
        "Ġcra",
        "b"
      ],
      [
        "Ġcra",
        "w"
      ],
      [
        "Ġshin",
        "ing"
      ],
      [
        "ĠIn",
        "side"
      ],
      [
        "ul",
        "ar"
      ],
      [
        "Ġfur",
        "ry"
      ],
      [
        "Ġcolor",
        "ful"
      ],
      [
        "Ġcla",
        "pped"
      ],
      [
        "Ġunderst",
        "and"
      ],
      [
        "Ġstre",
        "et"
      ],
      [
        "Ġexplain",
        "ed"
      ],
      [
        "ĠTh",
        "is"
      ],
      [
        "Ġgather",
        "ed"
      ],
      [
        "Ġretur",
        "ned"
      ],
      [
        "Ġblock",
        "s"
      ],
      [
        "Ġbre",
        "ak"
      ],
      [
        "Ġcurt",
        "ain"
      ],
      [
        "F",
        "inally"
      ],
      [
        "L",
        "ittle"
      ],
      [
        "M",
        "ia"
      ],
      [
        "a",
        "ir"
      ],
      [
        "b",
        "r"
      ],
      [
        "e",
        "b"
      ],
      [
        "g",
        "round"
      ],
      [
        "o",
        "om"
      ],
      [
        "p",
        "ed"
      ],
      [
        "y",
        "ard"
      ],
      [
        "Ġ",
        "'"
      ],
      [
        "Ġ",
        "ent"
      ],
      [
        "Ġt",
        "eddy"
      ],
      [
        "Ġwa",
        "nder"
      ],
      [
        "Ġb",
        "ook"
      ],
      [
        "Ġb",
        "aby"
      ],
      [
        "Ġb",
        "ath"
      ],
      [
        "Ġh",
        "at"
      ],
      [
        "Ġh",
        "an"
      ],
      [
        "Ġh",
        "ur"
      ],
      [
        "Ġh",
        "ook"
      ],
      [
        "it",
        "c"
      ],
      [
        "it",
        "y"
      ],
      [
        "Ġf",
        "it"
      ],
      [
        "Ġp",
        "ast"
      ],
      [
        "Ġp",
        "ract"
      ],
      [
        "Ġm",
        "ir"
      ],
      [
        "Ġo",
        "bed"
      ],
      [
        "en",
        "ry"
      ],
      [
        "an",
        "ce"
      ],
      [
        "an",
        "ny"
      ],
      [
        "Ġin",
        "c"
      ],
      [
        "Ġbe",
        "e"
      ],
      [
        "Ġst",
        "op"
      ],
      [
        "Ġr",
        "ide"
      ],
      [
        "Ġr",
        "ake"
      ],
      [
        "Ġy",
        "es"
      ],
      [
        "Ġpl",
        "an"
      ],
      [
        "ĠJ",
        "enny"
      ],
      [
        "Ġon",
        "to"
      ],
      [
        "Ġfor",
        "get"
      ],
      [
        "Ġplay",
        "ground"
      ],
      [
        "Ġan",
        "other"
      ],
      [
        "Ġsp",
        "ark"
      ],
      [
        "um",
        "ber"
      ],
      [
        "one",
        "y"
      ],
      [
        "ĠT",
        "ommy"
      ],
      [
        "Ġdo",
        "es"
      ],
      [
        "Ġdo",
        "ct"
      ],
      [
        "ĠB",
        "en"
      ],
      [
        "Ġcl",
        "oud"
      ],
      [
        "Ġnot",
        "hing"
      ],
      [
        "ag",
        "er"
      ],
      [
        "?\"",
        "."
      ],
      [
        "Ġmu",
        "sic"
      ],
      [
        "Ġco",
        "vered"
      ],
      [
        "Ġsun",
        "sh"
      ],
      [
        "Ġmo",
        "le"
      ],
      [
        "Ġbea",
        "ch"
      ],
      [
        "Ġsw",
        "ing"
      ],
      [
        "Ġwat",
        "ch"
      ],
      [
        "Ġwat",
        "ching"
      ],
      [
        "Ġcar",
        "rot"
      ],
      [
        "Ġim",
        "p"
      ],
      [
        "Ġcom",
        "p"
      ],
      [
        "Ġfr",
        "ustrated"
      ],
      [
        "Ġstran",
        "ger"
      ],
      [
        "ĠC",
        "har"
      ],
      [
        "Ġcol",
        "our"
      ],
      [
        "Ġprin",
        "t"
      ],
      [
        "Ġwind",
        "ow"
      ],
      [
        "Ġsqu",
        "ash"
      ],
      [
        "iz",
        "e"
      ],
      [
        "Ġru",
        "de"
      ],
      [
        "ĠTo",
        "gether"
      ],
      [
        "Ġdri",
        "ver"
      ],
      [
        "Ġpeace",
        "ful"
      ],
      [
        "Ġfro",
        "g"
      ],
      [
        "Ġoran",
        "ge"
      ],
      [
        "Ġmyster",
        "ious"
      ],
      [
        "Ġspo",
        "ke"
      ],
      [
        "Ġpar",
        "ade"
      ],
      [
        "Ġembarra",
        "ssed"
      ],
      [
        "Ġmin",
        "ut"
      ],
      [
        "Ġmir",
        "ror"
      ],
      [
        "Ġobed",
        "ient"
      ],
      [
        "Ġdoct",
        "or"
      ],
      [
        "Ġsunsh",
        "ine"
      ],
      [
        "'",
        "d"
      ],
      [
        "A",
        "my"
      ],
      [
        "D",
        "ad"
      ],
      [
        "H",
        "i"
      ],
      [
        "I",
        "n"
      ],
      [
        "J",
        "ane"
      ],
      [
        "M",
        "ax"
      ],
      [
        "b",
        "all"
      ],
      [
        "s",
        "et"
      ],
      [
        "u",
        "ce"
      ],
      [
        "Ġ",
        "K"
      ],
      [
        "Ġ",
        "our"
      ],
      [
        "Ġt",
        "ail"
      ],
      [
        "Ġa",
        "dd"
      ],
      [
        "Ġw",
        "r"
      ],
      [
        "Ġw",
        "ide"
      ],
      [
        "Ġw",
        "ise"
      ],
      [
        "nd",
        "ma"
      ],
      [
        "Ġwa",
        "ll"
      ],
      [
        "Ġb",
        "or"
      ],
      [
        "Ġto",
        "day"
      ],
      [
        "Ġh",
        "id"
      ],
      [
        "Ġh",
        "ung"
      ],
      [
        "ou",
        "n"
      ],
      [
        "Ġf",
        "ire"
      ],
      [
        "Ġf",
        "ield"
      ],
      [
        "Ġhe",
        "av"
      ],
      [
        "Ġl",
        "it"
      ],
      [
        "Ġc",
        "ake"
      ],
      [
        "Ġc",
        "ave"
      ],
      [
        "Ġc",
        "ream"
      ],
      [
        "Ġd",
        "aught"
      ],
      [
        "Ġp",
        "ers"
      ],
      [
        "Ġp",
        "ap"
      ],
      [
        "Ġo",
        "ce"
      ],
      [
        "Ġg",
        "low"
      ],
      [
        "en",
        "ise"
      ],
      [
        "an",
        "ic"
      ],
      [
        "Ġth",
        "ough"
      ],
      [
        "or",
        "m"
      ],
      [
        "ĠS",
        "ally"
      ],
      [
        "Ġe",
        "ager"
      ],
      [
        "Ġin",
        "st"
      ],
      [
        "on",
        "t"
      ],
      [
        "Ġr",
        "ug"
      ],
      [
        "ri",
        "or"
      ],
      [
        "il",
        "ing"
      ],
      [
        "Ġsm",
        "ell"
      ],
      [
        "Ġsm",
        "iling"
      ],
      [
        "ĠJ",
        "im"
      ],
      [
        "Ġre",
        "li"
      ],
      [
        "Ġk",
        "ick"
      ],
      [
        "Ġsp",
        "in"
      ],
      [
        "ill",
        "age"
      ],
      [
        "Ġj",
        "ob"
      ],
      [
        "Ġj",
        "ung"
      ],
      [
        "ur",
        "se"
      ],
      [
        "Ġdo",
        "ing"
      ],
      [
        "Ġal",
        "ong"
      ],
      [
        "Ġevery",
        "where"
      ],
      [
        "Ġv",
        "ine"
      ],
      [
        "Ġv",
        "illage"
      ],
      [
        "Ġwho",
        "le"
      ],
      [
        "Ġbec",
        "ome"
      ],
      [
        "ge",
        "st"
      ],
      [
        "Ġwo",
        "ke"
      ],
      [
        "Ġbear",
        "s"
      ],
      [
        "Ġwar",
        "rior"
      ],
      [
        "Ġfr",
        "ont"
      ],
      [
        "Ġplace",
        "s"
      ],
      [
        "Ġenjoy",
        "ing"
      ],
      [
        "Ġche",
        "ered"
      ],
      [
        "Ġdan",
        "ced"
      ],
      [
        "Ġeat",
        "ing"
      ],
      [
        "Ġpat",
        "h"
      ],
      [
        "Ġdro",
        "pped"
      ],
      [
        "ĠR",
        "u"
      ],
      [
        "ĠR",
        "achel"
      ],
      [
        "Ġmat",
        "ch"
      ],
      [
        "Ġmat",
        "ter"
      ],
      [
        "Ġcirc",
        "le"
      ],
      [
        "Ġflo",
        "at"
      ],
      [
        "Ġtri",
        "p"
      ],
      [
        "Ġhor",
        "se"
      ],
      [
        "Ġstand",
        "ing"
      ],
      [
        "fort",
        "able"
      ],
      [
        "Ġcher",
        "ry"
      ],
      [
        "Ġmark",
        "et"
      ],
      [
        "Ġbran",
        "ch"
      ],
      [
        "Ġph",
        "one"
      ],
      [
        "Ġdaught",
        "er"
      ],
      [
        "Ġoce",
        "an"
      ],
      [
        "Ġreli",
        "able"
      ],
      [
        "Ġjung",
        "le"
      ],
      [
        "C",
        "ome"
      ],
      [
        "J",
        "ust"
      ],
      [
        "M",
        "y"
      ],
      [
        "S",
        "am"
      ],
      [
        "S",
        "arah"
      ],
      [
        "T",
        "o"
      ],
      [
        "a",
        "e"
      ],
      [
        "a",
        "ss"
      ],
      [
        "b",
        "ow"
      ],
      [
        "b",
        "aby"
      ],
      [
        "c",
        "le"
      ],
      [
        "d",
        "ge"
      ],
      [
        "h",
        "ile"
      ],
      [
        "i",
        "ers"
      ],
      [
        "k",
        "in"
      ],
      [
        "m",
        "or"
      ],
      [
        "n",
        "ie"
      ],
      [
        "o",
        "nd"
      ],
      [
        "r",
        "ay"
      ],
      [
        "s",
        "ab"
      ],
      [
        "t",
        "i"
      ],
      [
        "w",
        "ard"
      ],
      [
        "y",
        "ing"
      ],
      [
        "Ġt",
        "in"
      ],
      [
        "Ġt",
        "reat"
      ],
      [
        "Ġt",
        "aught"
      ],
      [
        "Ġa",
        "ct"
      ],
      [
        "Ġs",
        "elf"
      ],
      [
        "Ġw",
        "is"
      ],
      [
        "in",
        "ce"
      ],
      [
        "in",
        "nie"
      ],
      [
        "Ġh",
        "ot"
      ],
      [
        "re",
        "ad"
      ],
      [
        "er",
        "ous"
      ],
      [
        "Ġl",
        "ate"
      ],
      [
        "Ġc",
        "and"
      ],
      [
        "Ġc",
        "ast"
      ],
      [
        "Ġc",
        "ush"
      ],
      [
        "Ġp",
        "en"
      ],
      [
        "Ġp",
        "et"
      ],
      [
        "Ġp",
        "il"
      ],
      [
        "Ġp",
        "urp"
      ],
      [
        "Ġm",
        "ind"
      ],
      [
        "Ġm",
        "oney"
      ],
      [
        "Ġg",
        "en"
      ],
      [
        "Ġg",
        "em"
      ],
      [
        "ar",
        "i"
      ],
      [
        "ay",
        "be"
      ],
      [
        "id",
        "ge"
      ],
      [
        "Ġe",
        "scape"
      ],
      [
        "ld",
        "iers"
      ],
      [
        "ir",
        "rel"
      ],
      [
        "Ġso",
        "l"
      ],
      [
        "Ġso",
        "ldiers"
      ],
      [
        "Ġst",
        "ret"
      ],
      [
        "Ġst",
        "uck"
      ],
      [
        "Ġn",
        "ap"
      ],
      [
        "Ġr",
        "are"
      ],
      [
        "st",
        "ing"
      ],
      [
        "ig",
        "hed"
      ],
      [
        "ĠI",
        "Ã¢"
      ],
      [
        "ent",
        "ion"
      ],
      [
        "Ġpl",
        "ane"
      ],
      [
        "al",
        "k"
      ],
      [
        "il",
        "k"
      ],
      [
        "ack",
        "et"
      ],
      [
        "ime",
        "s"
      ],
      [
        "un",
        "ch"
      ],
      [
        "Ġtime",
        "s"
      ],
      [
        "ĠJ",
        "ames"
      ],
      [
        "ĠJ",
        "une"
      ],
      [
        "ch",
        "anic"
      ],
      [
        "Ġsh",
        "y"
      ],
      [
        "ug",
        "g"
      ],
      [
        "Ġan",
        "t"
      ],
      [
        "Ġk",
        "ite"
      ],
      [
        "Ġsp",
        "read"
      ],
      [
        "Ġli",
        "ve"
      ],
      [
        "Ġj",
        "acket"
      ],
      [
        "Ġdo",
        "ve"
      ],
      [
        "ĠB",
        "eep"
      ],
      [
        "ĠB",
        "enny"
      ],
      [
        "ĠB",
        "inky"
      ],
      [
        "Ġwould",
        "n"
      ],
      [
        "ĠE",
        "nd"
      ],
      [
        "Ġfe",
        "et"
      ],
      [
        "Ġback",
        "yard"
      ],
      [
        "Ġme",
        "chanic"
      ],
      [
        "Ġbir",
        "th"
      ],
      [
        "Ġco",
        "zy"
      ],
      [
        "Ġqu",
        "een"
      ],
      [
        "as",
        "er"
      ],
      [
        "us",
        "ual"
      ],
      [
        "Ġbr",
        "own"
      ],
      [
        "ĠF",
        "inally"
      ],
      [
        "Ġpo",
        "l"
      ],
      [
        "Ġpo",
        "le"
      ],
      [
        "Ġpo",
        "inted"
      ],
      [
        "Ġmo",
        "ving"
      ],
      [
        "ate",
        "ly"
      ],
      [
        "Ġlaug",
        "h"
      ],
      [
        "Ġho",
        "pping"
      ],
      [
        "Ġany",
        "one"
      ],
      [
        "ion",
        "s"
      ],
      [
        "Jo",
        "e"
      ],
      [
        "Ġcon",
        "fused"
      ],
      [
        "Ġfr",
        "own"
      ],
      [
        "Ġac",
        "cept"
      ],
      [
        "Ġun",
        "i"
      ],
      [
        "Ġun",
        "usual"
      ],
      [
        "ĠEm",
        "ily"
      ],
      [
        "Ġtal",
        "king"
      ],
      [
        "Ġsqu",
        "irrel"
      ],
      [
        "Ġle",
        "g"
      ],
      [
        "Ġle",
        "ft"
      ],
      [
        "Ġpain",
        "ter"
      ],
      [
        "ble",
        "m"
      ],
      [
        "Ġspl",
        "as"
      ],
      [
        "ul",
        "t"
      ],
      [
        "Ġrain",
        "bow"
      ],
      [
        "Ġsear",
        "ching"
      ],
      [
        "la",
        "ire"
      ],
      [
        "Ġword",
        "s"
      ],
      [
        "Ġgrand",
        "baby"
      ],
      [
        "Ġadm",
        "ire"
      ],
      [
        "Ġsl",
        "ide"
      ],
      [
        "Ġmod",
        "el"
      ],
      [
        "Ġbott",
        "om"
      ],
      [
        "Ġpass",
        "port"
      ],
      [
        "Ġeng",
        "ine"
      ],
      [
        "Ġdanger",
        "ous"
      ],
      [
        "Ġpap",
        "er"
      ],
      [
        "sab",
        "el"
      ],
      [
        "Ġself",
        "ish"
      ],
      [
        "Ġcast",
        "le"
      ],
      [
        "Ġcush",
        "ion"
      ],
      [
        "Ġpil",
        "ot"
      ],
      [
        "Ġpurp",
        "le"
      ],
      [
        "Ġgen",
        "erous"
      ],
      [
        "Ġbirth",
        "day"
      ],
      [
        "I",
        "f"
      ],
      [
        "S",
        "ue"
      ],
      [
        "a",
        "ur"
      ],
      [
        "e",
        "k"
      ],
      [
        "e",
        "o"
      ],
      [
        "e",
        "re"
      ],
      [
        "e",
        "er"
      ],
      [
        "g",
        "g"
      ],
      [
        "l",
        "oo"
      ],
      [
        "n",
        "ic"
      ],
      [
        "p",
        "ill"
      ],
      [
        "t",
        "en"
      ],
      [
        "t",
        "ure"
      ],
      [
        "t",
        "ti"
      ],
      [
        "Ġ",
        "O"
      ],
      [
        "Ġ",
        "On"
      ],
      [
        "he",
        "art"
      ],
      [
        "he",
        "tti"
      ],
      [
        "Ġt",
        "id"
      ],
      [
        "Ġt",
        "ra"
      ],
      [
        "Ġt",
        "urt"
      ],
      [
        "Ġs",
        "er"
      ],
      [
        "Ġs",
        "ign"
      ],
      [
        "Ġw",
        "in"
      ],
      [
        "Ġw",
        "it"
      ],
      [
        "Ġw",
        "om"
      ],
      [
        "Ġw",
        "henever"
      ],
      [
        "Ġw",
        "ings"
      ],
      [
        "in",
        "ess"
      ],
      [
        "Ġwa",
        "nd"
      ],
      [
        "Ġb",
        "a"
      ],
      [
        "Ġb",
        "ri"
      ],
      [
        "Ġb",
        "uck"
      ],
      [
        "Ġb",
        "ask"
      ],
      [
        "er",
        "t"
      ],
      [
        "er",
        "pill"
      ],
      [
        "Ġl",
        "ake"
      ],
      [
        "Ġl",
        "ast"
      ],
      [
        "Ġl",
        "uck"
      ],
      [
        "Ġl",
        "unch"
      ],
      [
        "Ġc",
        "our"
      ],
      [
        "Ġd",
        "ea"
      ],
      [
        "ing",
        "er"
      ],
      [
        "Ġp",
        "ump"
      ],
      [
        "Ġp",
        "ool"
      ],
      [
        "Ġm",
        "ummy"
      ],
      [
        "Ġm",
        "ama"
      ],
      [
        "Ġm",
        "ountain"
      ],
      [
        "Ġm",
        "ilk"
      ],
      [
        "Ġo",
        "ct"
      ],
      [
        "ll",
        "o"
      ],
      [
        "en",
        "ce"
      ],
      [
        "id",
        "er"
      ],
      [
        "is",
        "s"
      ],
      [
        "ne",
        "ss"
      ],
      [
        "Ġsa",
        "ck"
      ],
      [
        "Ġsa",
        "iled"
      ],
      [
        "Ġst",
        "ack"
      ],
      [
        "am",
        "p"
      ],
      [
        "ĠI",
        "sabel"
      ],
      [
        "ĠJ",
        "ust"
      ],
      [
        "Ġre",
        "c"
      ],
      [
        "Ġre",
        "ad"
      ],
      [
        "Ġplay",
        "ful"
      ],
      [
        "Ġsh",
        "r"
      ],
      [
        "Ġsh",
        "ook"
      ],
      [
        "Ġsh",
        "adow"
      ],
      [
        "Ġas",
        "king"
      ],
      [
        "Ġsp",
        "ag"
      ],
      [
        "Ġj",
        "ar"
      ],
      [
        "Ġgo",
        "at"
      ],
      [
        "Ġcl",
        "ot"
      ],
      [
        "Ġcl",
        "um"
      ],
      [
        "Ġlo",
        "g"
      ],
      [
        "Ġhelp",
        "ful"
      ],
      [
        "Ġmu",
        "sh"
      ],
      [
        "Ġv",
        "al"
      ],
      [
        "op",
        "us"
      ],
      [
        "Åĵ",
        "Let"
      ],
      [
        "ĠD",
        "anny"
      ],
      [
        "ĠD",
        "enise"
      ],
      [
        "Ġke",
        "y"
      ],
      [
        "Ġmake",
        "s"
      ],
      [
        "us",
        "hed"
      ],
      [
        "us",
        "ie"
      ],
      [
        "Ġbr",
        "ing"
      ],
      [
        "Ġbr",
        "ush"
      ],
      [
        "Ġint",
        "ere"
      ],
      [
        "our",
        "ite"
      ],
      [
        "Ġtr",
        "ust"
      ],
      [
        "So",
        "on"
      ],
      [
        "au",
        "l"
      ],
      [
        "ĠG",
        "ary"
      ],
      [
        "Ġcat",
        "erpill"
      ],
      [
        "Ġkind",
        "s"
      ],
      [
        "Ġcom",
        "fortable"
      ],
      [
        "Ġar",
        "row"
      ],
      [
        "Ġche",
        "erful"
      ],
      [
        "Ġdan",
        "cing"
      ],
      [
        "Ġbed",
        "room"
      ],
      [
        "Ġtow",
        "er"
      ],
      [
        "Ġcry",
        "ing"
      ],
      [
        "Ġz",
        "ip"
      ],
      [
        "Ġcra",
        "ne"
      ],
      [
        "Ġsweet",
        "heart"
      ],
      [
        "Ġdelic",
        "ate"
      ],
      [
        "Ġor",
        "gan"
      ],
      [
        "Ġdin",
        "os"
      ],
      [
        "Ġbright",
        "ly"
      ],
      [
        "Ġtur",
        "n"
      ],
      [
        "Ġtur",
        "ned"
      ],
      [
        "Ġtur",
        "key"
      ],
      [
        "Ġfav",
        "ourite"
      ],
      [
        "Ġclim",
        "bed"
      ],
      [
        "Ġsn",
        "ack"
      ],
      [
        "Ġcirc",
        "les"
      ],
      [
        "Ġve",
        "st"
      ],
      [
        "Ġpic",
        "nic"
      ],
      [
        "Ġpic",
        "ture"
      ],
      [
        "Ġpro",
        "blem"
      ],
      [
        "ĠAl",
        "ice"
      ],
      [
        "Ġswim",
        "ming"
      ],
      [
        "Ġimag",
        "ined"
      ],
      [
        "Ġpus",
        "hing"
      ],
      [
        "Ġfoot",
        "ball"
      ],
      [
        "Ġwelc",
        "ome"
      ],
      [
        "Ġremind",
        "ed"
      ],
      [
        "Ġdisapp",
        "eared"
      ],
      [
        "Ġhur",
        "ry"
      ],
      [
        "Ġwr",
        "ite"
      ],
      [
        "Ġheav",
        "y"
      ],
      [
        "ĠRu",
        "ssel"
      ],
      [
        "Ġtin",
        "y"
      ],
      [
        "Ġcand",
        "le"
      ],
      [
        "Ġturt",
        "le"
      ],
      [
        "Ġwit",
        "ch"
      ],
      [
        "Ġwom",
        "an"
      ],
      [
        "Ġbuck",
        "et"
      ],
      [
        "Ġbask",
        "et"
      ],
      [
        "Ġcour",
        "se"
      ],
      [
        "Ġdea",
        "f"
      ],
      [
        "Ġpump",
        "kin"
      ],
      [
        "Ġoct",
        "opus"
      ],
      [
        "Ġspag",
        "hetti"
      ],
      [
        "Ġmush",
        "room"
      ],
      [
        "ÅĵLet",
        "Ã¢"
      ],
      [
        "Ġintere",
        "sting"
      ],
      [
        "Ġcaterpill",
        "ar"
      ],
      [
        "B",
        "e"
      ],
      [
        "M",
        "um"
      ],
      [
        "N",
        "ow"
      ],
      [
        "O",
        "f"
      ],
      [
        "W",
        "here"
      ],
      [
        "Z",
        "ig"
      ],
      [
        "c",
        "age"
      ],
      [
        "c",
        "ient"
      ],
      [
        "c",
        "cept"
      ],
      [
        "e",
        "le"
      ],
      [
        "e",
        "lly"
      ],
      [
        "f",
        "ant"
      ],
      [
        "h",
        "ie"
      ],
      [
        "l",
        "ate"
      ],
      [
        "m",
        "ent"
      ],
      [
        "m",
        "unk"
      ],
      [
        "s",
        "ing"
      ],
      [
        "t",
        "ra"
      ],
      [
        "v",
        "ous"
      ],
      [
        "y",
        "er"
      ],
      [
        "z",
        "ag"
      ],
      [
        "Ġ",
        "No"
      ],
      [
        "Ġs",
        "ight"
      ],
      [
        "Ġs",
        "inging"
      ],
      [
        "Ġw",
        "ish"
      ],
      [
        "ed",
        "al"
      ],
      [
        "Ġh",
        "oo"
      ],
      [
        "er",
        "vous"
      ],
      [
        "Ġhe",
        "dge"
      ],
      [
        "Ġhe",
        "llo"
      ],
      [
        "Ġl",
        "aw"
      ],
      [
        "Ġc",
        "or"
      ],
      [
        "Ġc",
        "ase"
      ],
      [
        "Ġc",
        "ele"
      ],
      [
        "Ġd",
        "i"
      ],
      [
        "Ġd",
        "iz"
      ],
      [
        "Ġp",
        "our"
      ],
      [
        "Ġp",
        "urse"
      ],
      [
        "Ġp",
        "edal"
      ],
      [
        "Ġg",
        "as"
      ],
      [
        "Ġg",
        "ate"
      ],
      [
        "ar",
        "n"
      ],
      [
        "at",
        "ure"
      ],
      [
        "is",
        "ted"
      ],
      [
        "ne",
        "y"
      ],
      [
        "an",
        "g"
      ],
      [
        "an",
        "ged"
      ],
      [
        "Ġha",
        "s"
      ],
      [
        "Ġha",
        "ir"
      ],
      [
        "im",
        "p"
      ],
      [
        "Ġe",
        "as"
      ],
      [
        "Ġe",
        "gg"
      ],
      [
        "Ġin",
        "fant"
      ],
      [
        "ĠH",
        "enry"
      ],
      [
        "Ġbe",
        "g"
      ],
      [
        "Ġso",
        "ck"
      ],
      [
        "ck",
        "y"
      ],
      [
        "Ġn",
        "umber"
      ],
      [
        "Ġn",
        "ervous"
      ],
      [
        "Ġr",
        "ad"
      ],
      [
        "Ġr",
        "ushed"
      ],
      [
        "Ġy",
        "arn"
      ],
      [
        "Ġsm",
        "elly"
      ],
      [
        "âĤ¬",
        "."
      ],
      [
        "Ġsh",
        "ap"
      ],
      [
        "Ġas",
        "k"
      ],
      [
        "Ġex",
        "tra"
      ],
      [
        "Ġan",
        "cient"
      ],
      [
        "Ġsp",
        "ade"
      ],
      [
        "Ġsp",
        "icy"
      ],
      [
        "um",
        "mer"
      ],
      [
        "ill",
        "ie"
      ],
      [
        "Ġj",
        "u"
      ],
      [
        "Ġj",
        "our"
      ],
      [
        "Ġj",
        "eep"
      ],
      [
        "ĠA",
        "li"
      ],
      [
        "ĠA",
        "ccept"
      ],
      [
        "ur",
        "ed"
      ],
      [
        "Ġse",
        "a"
      ],
      [
        "ĠB",
        "ear"
      ],
      [
        "Ġsomet",
        "imes"
      ],
      [
        "Ġhelp",
        "ing"
      ],
      [
        "ear",
        "s"
      ],
      [
        "ĠL",
        "eo"
      ],
      [
        "Ġwor",
        "ries"
      ],
      [
        "ie",
        "f"
      ],
      [
        "Ġno",
        "sy"
      ],
      [
        "Ġfun",
        "ny"
      ],
      [
        "Ġch",
        "ip"
      ],
      [
        "Ġch",
        "alk"
      ],
      [
        "Ġv",
        "ase"
      ],
      [
        "op",
        "hie"
      ],
      [
        "ĠW",
        "henever"
      ],
      [
        "ĠW",
        "hile"
      ],
      [
        "Ġbird",
        "cage"
      ],
      [
        "ran",
        "ny"
      ],
      [
        "if",
        "e"
      ],
      [
        "Ġsc",
        "re"
      ],
      [
        "Ġro",
        "ad"
      ],
      [
        "Ġen",
        "v"
      ],
      [
        "Ġen",
        "orm"
      ],
      [
        "Ġsad",
        "ly"
      ],
      [
        "Ġkne",
        "e"
      ],
      [
        "Ġho",
        "ld"
      ],
      [
        "Ġtr",
        "ou"
      ],
      [
        "Ġtr",
        "unk"
      ],
      [
        "ĠSo",
        "on"
      ],
      [
        "Ġknow",
        "ing"
      ],
      [
        "ĠG",
        "ranny"
      ],
      [
        "Ġlea",
        "k"
      ],
      [
        "Ġbu",
        "bb"
      ],
      [
        "Ġbug",
        "s"
      ],
      [
        "Ġus",
        "ing"
      ],
      [
        "ĠP",
        "eter"
      ],
      [
        "Ġfore",
        "ver"
      ],
      [
        "ĠC",
        "laire"
      ],
      [
        "Ġstrong",
        "er"
      ],
      [
        "Ġz",
        "eb"
      ],
      [
        "co",
        "late"
      ],
      [
        "Ġpa",
        "le"
      ],
      [
        "Ġjo",
        "g"
      ],
      [
        "Ġjo",
        "ke"
      ],
      [
        "Ġbow",
        "s"
      ],
      [
        "Ġsound",
        "s"
      ],
      [
        "Ġpow",
        "er"
      ],
      [
        "Ġpow",
        "der"
      ],
      [
        "ĠGra",
        "ndma"
      ],
      [
        "Ġspl",
        "ash"
      ],
      [
        "Ġrock",
        "s"
      ],
      [
        "Ġbar",
        "n"
      ],
      [
        "Ġmess",
        "y"
      ],
      [
        "Ġunderst",
        "ood"
      ],
      [
        "Ġballoon",
        "s"
      ],
      [
        "Ġkn",
        "ife"
      ],
      [
        "Ġcho",
        "colate"
      ],
      [
        "Ġmet",
        "al"
      ],
      [
        "Ġear",
        "s"
      ],
      [
        "umb",
        "led"
      ],
      [
        "Ġpiece",
        "s"
      ],
      [
        "bo",
        "dy"
      ],
      [
        "Ġgu",
        "ard"
      ],
      [
        "Ġsho",
        "es"
      ],
      [
        "Ġansw",
        "er"
      ],
      [
        "Ġzi",
        "pping"
      ],
      [
        "Ġdes",
        "k"
      ],
      [
        "Ġcoll",
        "ec"
      ],
      [
        "Ġarm",
        "s"
      ],
      [
        "Ġcurtain",
        "s"
      ],
      [
        "Ġhan",
        "ger"
      ],
      [
        "Ġinc",
        "lu"
      ],
      [
        "Ġcolour",
        "ful"
      ],
      [
        "Ġminut",
        "es"
      ],
      [
        "Ġpers",
        "on"
      ],
      [
        "Ġplane",
        "t"
      ],
      [
        "Ġpol",
        "ite"
      ],
      [
        "Ġba",
        "ld"
      ],
      [
        "Ġrec",
        "ord"
      ],
      [
        "Ġclot",
        "hes"
      ],
      [
        "Ġclum",
        "sy"
      ],
      [
        "Ġdinos",
        "aur"
      ],
      [
        "Zig",
        "zag"
      ],
      [
        "Ġhoo",
        "p"
      ],
      [
        "Ġlaw",
        "yer"
      ],
      [
        "Ġcor",
        "ner"
      ],
      [
        "Ġdiz",
        "zy"
      ],
      [
        "Ġrad",
        "io"
      ],
      [
        "Ġshap",
        "es"
      ],
      [
        "Ġjour",
        "ney"
      ],
      [
        "ĠAccept",
        "or"
      ],
      [
        "Ġchip",
        "munk"
      ],
      [
        "Ġenorm",
        "ous"
      ],
      [
        "Ġzeb",
        "ra"
      ],
      [
        "B",
        "en"
      ],
      [
        "C",
        "har"
      ],
      [
        "E",
        "m"
      ],
      [
        "F",
        "rank"
      ],
      [
        "M",
        "ary"
      ],
      [
        "O",
        "kay"
      ],
      [
        "S",
        "ure"
      ],
      [
        "W",
        "ell"
      ],
      [
        "a",
        "le"
      ],
      [
        "c",
        "il"
      ],
      [
        "c",
        "hes"
      ],
      [
        "d",
        "ed"
      ],
      [
        "g",
        "n"
      ],
      [
        "g",
        "es"
      ],
      [
        "g",
        "ular"
      ],
      [
        "h",
        "ood"
      ],
      [
        "m",
        "an"
      ],
      [
        "m",
        "ined"
      ],
      [
        "o",
        "ld"
      ],
      [
        "p",
        "ar"
      ],
      [
        "r",
        "s"
      ],
      [
        "s",
        "it"
      ],
      [
        "u",
        "ched"
      ],
      [
        "Ġ",
        "er"
      ],
      [
        "Ġ",
        "ind"
      ],
      [
        "he",
        "ad"
      ],
      [
        "Ġt",
        "able"
      ],
      [
        "Ġa",
        "w"
      ],
      [
        "Ġa",
        "head"
      ],
      [
        "Ġs",
        "itt"
      ],
      [
        "Ġs",
        "illy"
      ],
      [
        "Ġs",
        "ummer"
      ],
      [
        "Ġw",
        "ra"
      ],
      [
        "Ġw",
        "ip"
      ],
      [
        "in",
        "a"
      ],
      [
        "in",
        "al"
      ],
      [
        "Ġwa",
        "g"
      ],
      [
        "Ġwa",
        "ke"
      ],
      [
        "Ġwa",
        "ist"
      ],
      [
        "Ġb",
        "reat"
      ],
      [
        "Ġb",
        "ike"
      ],
      [
        "Ġto",
        "ug"
      ],
      [
        "Ġto",
        "uched"
      ],
      [
        "Ġh",
        "op"
      ],
      [
        "it",
        "a"
      ],
      [
        "re",
        "w"
      ],
      [
        "Ġf",
        "an"
      ],
      [
        "Ġl",
        "ater"
      ],
      [
        "Ġl",
        "ying"
      ],
      [
        "Ġc",
        "al"
      ],
      [
        "Ġd",
        "ir"
      ],
      [
        "Ġd",
        "irt"
      ],
      [
        "Ġd",
        "eter"
      ],
      [
        "Ġd",
        "ependable"
      ],
      [
        "Ġp",
        "in"
      ],
      [
        "Ġp",
        "le"
      ],
      [
        "Ġp",
        "udd"
      ],
      [
        "Ġp",
        "op"
      ],
      [
        "Ġm",
        "ad"
      ],
      [
        "Ġm",
        "out"
      ],
      [
        "Ġm",
        "ug"
      ],
      [
        "Ġo",
        "b"
      ],
      [
        "Ġg",
        "if"
      ],
      [
        "Ġg",
        "igg"
      ],
      [
        "ll",
        "s"
      ],
      [
        "ay",
        "ak"
      ],
      [
        "Ġsa",
        "ng"
      ],
      [
        "Ġsa",
        "uce"
      ],
      [
        "Ġha",
        "iry"
      ],
      [
        "Ġth",
        "umb"
      ],
      [
        "Ġth",
        "rew"
      ],
      [
        "ĠS",
        "usie"
      ],
      [
        "ĠS",
        "ophie"
      ],
      [
        "et",
        "e"
      ],
      [
        "Ġe",
        "art"
      ],
      [
        "Ġu",
        "r"
      ],
      [
        "Ġst",
        "ir"
      ],
      [
        "Ġst",
        "ood"
      ],
      [
        "Ġst",
        "ep"
      ],
      [
        "Ġst",
        "umbled"
      ],
      [
        "Ġn",
        "ature"
      ],
      [
        "ot",
        "ing"
      ],
      [
        "Ġr",
        "ound"
      ],
      [
        "ig",
        "inal"
      ],
      [
        "oo",
        "f"
      ],
      [
        "Ġday",
        "s"
      ],
      [
        "al",
        "ed"
      ],
      [
        "il",
        "t"
      ],
      [
        "Ġwe",
        "al"
      ],
      [
        "Ġwe",
        "ight"
      ],
      [
        "Ġwe",
        "ak"
      ],
      [
[...]
